{
  "<pad>": 0,
  "</s>": 1,
  "<unk>": 2,
  ",": 3,
  "▁": 4,
  ".": 5,
  "0": 6,
  "▁the": 7,
  "1": 8,
  "-": 9,
  "2": 10,
  "▁of": 11,
  "▁and": 12,
  "s": 13,
  "9": 14,
  "3": 15,
  "5": 16,
  "▁to": 17,
  "4": 18,
  "▁in": 19,
  "6": 20,
  "/": 21,
  "8": 22,
  "▁(": 23,
  "7": 24,
  "▁a": 25,
  ")": 26,
  "的": 27,
  "。": 28,
  ":": 29,
  "▁-": 30,
  "▁is": 31,
  "▁for": 32,
  "'": 33,
  "▁\"": 34,
  "和": 35,
  "▁that": 36,
  "、": 37,
  "▁on": 38,
  "▁with": 39,
  "(": 40,
  "▁The": 41,
  ";": 42,
  "▁as": 43,
  "▁by": 44,
  "▁was": 45,
  "在": 46,
  "▁from": 47,
  "ing": 48,
  "▁be": 49,
  "▁are": 50,
  "\"": 51,
  "▁or": 52,
  "▁at": 53,
  "ed": 54,
  "▁it": 55,
  "),": 56,
  "年": 57,
  "▁an": 58,
  ").": 59,
  "▁I": 60,
  "A": 61,
  "▁you": 62,
  "d": 63,
  "▁which": 64,
  "▁not": 65,
  "▁have": 66,
  "t": 67,
  "▁A": 68,
  "▁this": 69,
  "▁In": 70,
  "a": 71,
  "?": 72,
  "是": 73,
  "▁has": 74,
  "e": 75,
  "▁will": 76,
  "S": 77,
  "了": 78,
  "▁can": 79,
  "中": 80,
  "月": 81,
  "ly": 82,
  "▁their": 83,
  "▁its": 84,
  "▁all": 85,
  "%": 86,
  "▁his": 87,
  "C": 88,
  "▁were": 89,
  "y": 90,
  "er": 91,
  "▁one": 92,
  "▁he": 93,
  "与": 94,
  "为": 95,
  "“": 96,
  "▁more": 97,
  "]": 98,
  "▁but": 99,
  "in": 100,
  "或": 101,
  "!": 102,
  "▁also": 103,
  "▁who": 104,
  "▁they": 105,
  "▁other": 106,
  "对": 107,
  "▁S": 108,
  "▁had": 109,
  "▁we": 110,
  "人": 111,
  "▁been": 112,
  "▁your": 113,
  "o": 114,
  "al": 115,
  "m": 116,
  "”": 117,
  "有": 118,
  "上": 119,
  "▁$": 120,
  "日": 121,
  "E": 122,
  "▁than": 123,
  "▁about": 124,
  "es": 125,
  "i": 126,
  "L": 127,
  "n": 128,
  "·": 129,
  "th": 130,
  "▁time": 131,
  "不": 132,
  "▁new": 133,
  "▁into": 134,
  "将": 135,
  "▁first": 136,
  "并": 137,
  "《": 138,
  "▁out": 139,
  "b": 140,
  "▁our": 141,
  "▁only": 142,
  "▁It": 143,
  "▁up": 144,
  "以": 145,
  "▁two": 146,
  "▁people": 147,
  "▁such": 148,
  "re": 149,
  "▁so": 150,
  "c": 151,
  "or": 152,
  "r": 153,
  "▁[": 154,
  "▁there": 155,
  "▁years": 156,
  "...": 157,
  "▁over": 158,
  "到": 159,
  "D": 160,
  "B": 161,
  "▁would": 162,
  "》": 163,
  "他": 164,
  "▁said": 165,
  "以及": 166,
  "▁them": 167,
  "▁most": 168,
  "▁when": 169,
  "▁any": 170,
  "被": 171,
  "一个": 172,
  ");": 173,
  "第": 174,
  "▁E": 175,
  "▁This": 176,
  "▁no": 177,
  "▁C": 178,
  ")。": 179,
  "我": 180,
  "▁在": 181,
  "g": 182,
  "▁re": 183,
  "▁P": 184,
  "▁use": 185,
  "▁her": 186,
  "而": 187,
  "▁+": 188,
  "to": 189,
  "▁well": 190,
  "▁'": 191,
  "▁United": 192,
  "地": 193,
  "the": 194,
  "▁do": 195,
  "性": 196,
  "从": 197,
  "▁world": 198,
  "时": 199,
  "▁under": 200,
  "▁some": 201,
  "▁may": 202,
  "▁if": 203,
  "▁between": 204,
  "▁year": 205,
  "I": 206,
  "▁work": 207,
  "▁B": 208,
  "其": 209,
  "M": 210,
  "▁after": 211,
  "使用": 212,
  "▁like": 213,
  "▁these": 214,
  "大": 215,
  "▁de": 216,
  "▁system": 217,
  "提供": 218,
  "▁He": 219,
  "ers": 220,
  "一": 221,
  "包括": 222,
  "▁used": 223,
  "▁T": 224,
  "▁through": 225,
  "T": 226,
  "于": 227,
  "▁per": 228,
  "F": 229,
  "an": 230,
  "▁M": 231,
  "▁D": 232,
  "说": 233,
  "and": 234,
  "G": 235,
  "▁where": 236,
  "on": 237,
  "P": 238,
  "\",": 239,
  "▁including": 240,
  "——": 241,
  "所": 242,
  "k": 243,
  "en": 244,
  "我们": 245,
  "向": 246,
  "h": 247,
  "▁what": 248,
  "关于": 249,
  "公司": 250,
  "▁many": 251,
  "▁information": 252,
  "▁my": 253,
  "可": 254,
  "由": 255,
  "者": 256,
  "你": 257,
  "▁G": 258,
  "▁made": 259,
  "▁We": 260,
  "就": 261,
  "▁F": 262,
  "▁&": 263,
  "▁high": 264,
  "▁For": 265,
  "▁number": 266,
  "▁No": 267,
  "▁should": 268,
  "ic": 269,
  "able": 270,
  "他们": 271,
  "国家": 272,
  "会": 273,
  "K": 274,
  "▁development": 275,
  "通过": 276,
  "进行": 277,
  ".\"": 278,
  "可以": 279,
  "p": 280,
  "斯": 281,
  "及": 282,
  "▁K": 283,
  "x": 284,
  "l": 285,
  "▁million": 286,
  "▁could": 287,
  "多": 288,
  "来": 289,
  "▁those": 290,
  "▁U": 291,
  "▁same": 292,
  "▁very": 293,
  "▁him": 294,
  "▁three": 295,
  "问题": 296,
  "▁N": 297,
  "▁R": 298,
  "▁As": 299,
  "▁part": 300,
  "▁me": 301,
  "▁during": 302,
  "也": 303,
  "法": 304,
  "后": 305,
  "▁then": 306,
  "但": 307,
  "▁even": 308,
  "▁And": 309,
  "z": 310,
  "下": 311,
  "特": 312,
  "国际": 313,
  "▁un": 314,
  "N": 315,
  "it": 316,
  "它": 317,
  "▁life": 318,
  "▁she": 319,
  "用": 320,
  "▁data": 321,
  "该": 322,
  "▁just": 323,
  "▁At": 324,
  "▁non": 325,
  "R": 326,
  "▁now": 327,
  "德": 328,
  "▁L": 329,
  "ity": 330,
  "▁make": 331,
  "个": 332,
  "等": 333,
  "▁because": 334,
  "委员会": 335,
  "com": 336,
  "这些": 337,
  "V": 338,
  "▁Russian": 339,
  "▁being": 340,
  "us": 341,
  "都": 342,
  "The": 343,
  "▁before": 344,
  "man": 345,
  "ar": 346,
  "▁--": 347,
  "is": 348,
  "▁us": 349,
  "▁States": 350,
  "f": 351,
  "新": 352,
  "▁“": 353,
  "▁H": 354,
  "▁company": 355,
  "at": 356,
  "服务": 357,
  "▁If": 358,
  "工作": 359,
  "▁how": 360,
  "系统": 361,
  "▁against": 362,
  "de": 363,
  "▁Mr": 364,
  "里": 365,
  "H": 366,
  "▁Committee": 367,
  "na": 368,
  "ion": 369,
  "▁countries": 370,
  "▁Re": 371,
  "ation": 372,
  "[": 373,
  "前": 374,
  "▁Nations": 375,
  "拉": 376,
  "▁V": 377,
  "▁support": 378,
  "▁day": 379,
  "▁To": 380,
  "▁called": 381,
  "号": 382,
  "▁O": 383,
  "▁On": 384,
  "▁China": 385,
  "O": 386,
  "名": 387,
  "▁international": 388,
  "▁report": 389,
  "▁while": 390,
  "▁long": 391,
  "▁way": 392,
  "没有": 393,
  "▁International": 394,
  "还": 395,
  "技术": 396,
  "内": 397,
  "▁Co": 398,
  "▁water": 399,
  "▁human": 400,
  "▁found": 401,
  "▁services": 402,
  "▁country": 403,
  "ve": 404,
  "▁Al": 405,
  "克": 406,
  "u": 407,
  "▁But": 408,
  "ist": 409,
  "as": 410,
  "▁each": 411,
  "▁You": 412,
  "▁need": 413,
  "▁both": 414,
  "项目": 415,
  "st": 416,
  "报告": 417,
  "之": 418,
  "le": 419,
  "子": 420,
  "▁women": 421,
  "▁own": 422,
  "▁power": 423,
  "ment": 424,
  "▁Council": 425,
  "▁area": 426,
  "这": 427,
  "▁take": 428,
  "▁total": 429,
  "▁city": 430,
  "▁different": 431,
  "▁order": 432,
  "▁place": 433,
  "ism": 434,
  "▁period": 435,
  "政府": 436,
  "比": 437,
  "▁New": 438,
  "出": 439,
  "她": 440,
  "_": 441,
  "▁children": 442,
  "高": 443,
  "管理": 444,
  "要": 445,
  "▁last": 446,
  "已": 447,
  "ll": 448,
  "▁without": 449,
  "el": 450,
  "▁right": 451,
  "▁Republic": 452,
  "▁see": 453,
  "水": 454,
  "▁state": 455,
  "+": 456,
  "▁Russia": 457,
  "CN": 458,
  "发展": 459,
  "至": 460,
  "▁products": 461,
  "▁since": 462,
  "▁group": 463,
  "卡": 464,
  "ate": 465,
  "▁national": 466,
  "▁within": 467,
  "W": 468,
  "▁get": 469,
  "中心": 470,
  "▁example": 471,
  "▁back": 472,
  "研究": 473,
  "组织": 474,
  "机": 475,
  "西": 476,
  "能": 477,
  "▁end": 478,
  "更": 479,
  "需要": 480,
  "▁much": 481,
  "尔": 482,
  "▁good": 483,
  "▁know": 484,
  "▁project": 485,
  "un": 486,
  "▁must": 487,
  "▁service": 488,
  "利": 489,
  "活动": 490,
  "▁around": 491,
  "联合国": 492,
  "最": 493,
  "已经": 494,
  "ive": 495,
  "美国": 496,
  "先生": 497,
  "Add": 498,
  "化": 499,
  "ry": 500,
  "ian": 501,
  "v": 502,
  "▁small": 503,
  "ta": 504,
  "J": 505,
  "▁business": 506,
  "▁name": 507,
  "支持": 508,
  "▁set": 509,
  "▁production": 510,
  "马": 511,
  "▁provide": 512,
  "会议": 513,
  "▁man": 514,
  "▁known": 515,
  "no": 516,
  "ness": 517,
  "所有": 518,
  "▁market": 519,
  "▁University": 520,
  "▁public": 521,
  "▁So": 522,
  "ka": 523,
  "ary": 524,
  "▁process": 525,
  "up": 526,
  "小": 527,
  "世界": 528,
  "▁using": 529,
  "te": 530,
  "使": 531,
  "▁help": 532,
  "无": 533,
  "▁still": 534,
  "▁level": 535,
  "着": 536,
  "ia": 537,
  "ch": 538,
  "▁National": 539,
  "▁every": 540,
  "apos": 541,
  "阿": 542,
  "▁State": 543,
  ",\"": 544,
  "▁shall": 545,
  "美元": 546,
  "▁General": 547,
  "任何": 548,
  "▁De": 549,
  "ne": 550,
  "▁large": 551,
  "▁best": 552,
  "数据": 553,
  "▁There": 554,
  "作为": 555,
  "▁second": 556,
  "如": 557,
  "▁God": 558,
  "器": 559,
  "本": 560,
  "▁down": 561,
  "▁pre": 562,
  "▁did": 563,
  "▁p": 564,
  "▁W": 565,
  "▁J": 566,
  "▁social": 567,
  "▁meeting": 568,
  "有关": 569,
  "▁another": 570,
  "代表": 571,
  "X": 572,
  "可能": 573,
  "▁local": 574,
  "▁research": 575,
  "ma": 576,
  "li": 577,
  "应": 578,
  "▁government": 579,
  "w": 580,
  "▁control": 581,
  "条": 582,
  "▁case": 583,
  "▁US": 584,
  "分": 585,
  "il": 586,
  "信息": 587,
  "表示": 588,
  "计划": 589,
  "um": 590,
  "▁European": 591,
  "家": 592,
  "▁does": 593,
  "中国": 594,
  "et": 595,
  "中的": 596,
  "ty": 597,
  "▁amount": 598,
  "把": 599,
  "▁important": 600,
  "▁region": 601,
  "▁They": 602,
  "文件": 603,
  "▁family": 604,
  "产品": 605,
  "▁form": 606,
  "▁great": 607,
  "这个": 608,
  "您": 609,
  "▁technology": 610,
  "方案": 611,
  "根据": 612,
  "▁*": 613,
  "co": 614,
  "▁four": 615,
  "外": 616,
  "▁among": 617,
  "▁rights": 618,
  "全球": 619,
  "Z": 620,
  "▁law": 621,
  "▁based": 622,
  "ton": 623,
  "▁home": 624,
  "合作": 625,
  "要求": 626,
  "▁following": 627,
  "的人": 628,
  "长": 629,
  "▁days": 630,
  "▁main": 631,
  "▁go": 632,
  "▁here": 633,
  "ant": 634,
  "区": 635,
  "one": 636,
  "天": 637,
  "▁special": 638,
  "▁World": 639,
  "因为": 640,
  "▁study": 641,
  "点": 642,
  "▁held": 643,
  "▁When": 644,
  "▁An": 645,
  "科": 646,
  "保护": 647,
  "自": 648,
  "段": 649,
  "米": 650,
  "am": 651,
  "▁health": 652,
  "加": 653,
  "▁b": 654,
  "▁co": 655,
  "▁resolution": 656,
  "力": 657,
  "见": 658,
  "非": 659,
  "▁All": 660,
  "其他": 661,
  "▁President": 662,
  "网络": 663,
  "▁activities": 664,
  "▁body": 665,
  "▁working": 666,
  "ra": 667,
  "用于": 668,
  "▁December": 669,
  "经济": 670,
  "给": 671,
  "▁systems": 672,
  "过": 673,
  "部": 674,
  "▁available": 675,
  "执行": 676,
  "▁less": 677,
  "▁free": 678,
  "▁energy": 679,
  "获得": 680,
  "▁become": 681,
  "机构": 682,
  "▁economic": 683,
  "国": 684,
  "▁May": 685,
  "ine": 686,
  "▁According": 687,
  "文": 688,
  "j": 689,
  "ization": 690,
  "金": 691,
  "去": 692,
  "开始": 693,
  "▁possible": 694,
  "▁want": 695,
  "age": 696,
  "▁several": 697,
  "▁means": 698,
  "▁June": 699,
  "手": 700,
  "▁increase": 701,
  "AC": 702,
  "▁design": 703,
  "Y": 704,
  "一些": 705,
  "尼": 706,
  "安全": 707,
  "教育": 708,
  "se": 709,
  "▁St": 710,
  "社会": 711,
  "▁members": 712,
  "海": 713,
  "▁full": 714,
  "os": 715,
  "达": 716,
  ".[": 717,
  "▁find": 718,
  "▁areas": 719,
  "▁billion": 720,
  "of": 721,
  "▁men": 722,
  "方面": 723,
  "son": 724,
  "based": 725,
  "▁management": 726,
  "▁m": 727,
  "▁Group": 728,
  "三": 729,
  "▁come": 730,
  "大学": 731,
  "▁cent": 732,
  "纳": 733,
  "▁c": 734,
  "U": 735,
  "ated": 736,
  "▁我": 737,
  "车": 738,
  "ad": 739,
  "即": 740,
  "▁team": 741,
  "巴": 742,
  "能够": 743,
  "▁Z": 744,
  "):": 745,
  "ro": 746,
  "▁access": 747,
  "▁July": 748,
  "▁times": 749,
  "▁person": 750,
  "ni": 751,
  "心": 752,
  "同": 753,
  "具有": 754,
  "企业": 755,
  "General": 756,
  "▁old": 757,
  "格": 758,
  "▁percent": 759,
  "*": 760,
  "Q": 761,
  "设备": 762,
  "la": 763,
  "他的": 764,
  "year": 765,
  "▁often": 766,
  "▁fact": 767,
  "其中": 768,
  "时间": 769,
  "行": 770,
  "▁off": 771,
  "ov": 772,
  "▁security": 773,
  "生": 774,
  "ie": 775,
  "▁light": 776,
  "好": 777,
  "▁Secretary": 778,
  "me": 779,
  "▁One": 780,
  "认为": 781,
  "▁five": 782,
  "▁American": 783,
  "▁various": 784,
  "▁air": 785,
  "▁head": 786,
  "ur": 787,
  "ri": 788,
  "罗": 789,
  "▁industry": 790,
  "▁quality": 791,
  "▁Development": 792,
  "▁financial": 793,
  "▁say": 794,
  "▁experience": 795,
  "▁don": 796,
  "得": 797,
  "安": 798,
  "▁least": 799,
  "▁general": 800,
  "▁equipment": 801,
  "▁real": 802,
  "这种": 803,
  "设计": 804,
  "地区": 805,
  "ce": 806,
  "的报告": 807,
  "▁anti": 808,
  "▁military": 809,
  "自己": 810,
  "各": 811,
  "▁think": 812,
  "▁change": 813,
  "▁according": 814,
  "di": 815,
  "市场": 816,
  "法律": 817,
  "妇女": 818,
  "est": 819,
  "▁post": 820,
  "ized": 821,
  "▁dis": 822,
  "▁include": 823,
  "▁With": 824,
  "ol": 825,
  "▁low": 826,
  "▁South": 827,
  "▁cost": 828,
  "式": 829,
  "度": 830,
  "这一": 831,
  "▁provided": 832,
  "▁further": 833,
  "▁present": 834,
  "建议": 835,
  "▁car": 836,
  "ling": 837,
  "▁next": 838,
  "im": 839,
  "▁already": 840,
  "In": 841,
  "基": 842,
  "▁—": 843,
  "ya": 844,
  "受": 845,
  "全": 846,
  "▁Europe": 847,
  "▁companies": 848,
  "▁range": 849,
  "学": 850,
  "▁€": 851,
  "▁future": 852,
  "▁took": 853,
  "成": 854,
  "▁few": 855,
  "sh": 856,
  "▁open": 857,
  "亚": 858,
  "▁con": 859,
  "公约": 860,
  "环境": 861,
  "▁e": 862,
  "▁current": 863,
  "▁result": 864,
  "be": 865,
  "for": 866,
  "▁Commission": 867,
  "id": 868,
  "▁site": 869,
  "型": 870,
  "▁March": 871,
  "光": 872,
  "万": 873,
  "▁food": 874,
  "”。": 875,
  "处理": 876,
  "位": 877,
  "▁building": 878,
  "▁political": 879,
  "▁above": 880,
  "或者": 881,
  "▁addition": 882,
  "▁January": 883,
  "▁population": 884,
  "▁Dr": 885,
  "儿童": 886,
  "那": 887,
  "▁third": 888,
  "▁located": 889,
  "▁school": 890,
  "▁point": 891,
  "▁later": 892,
  "ts": 893,
  "▁early": 894,
  "▁near": 895,
  "▁By": 896,
  "mm": 897,
  "起": 898,
  "▁She": 899,
  "正在": 900,
  "▁training": 901,
  "▁space": 902,
  "伊": 903,
  "con": 904,
  "da": 905,
  "道": 906,
  "he": 907,
  "▁together": 908,
  "▁self": 909,
  "▁war": 910,
  "▁global": 911,
  ":“": 912,
  "控制": 913,
  "▁developed": 914,
  "▁education": 915,
  "old": 916,
  "二": 917,
  "选择": 918,
  "行动": 919,
  "▁due": 920,
  "塔": 921,
  "men": 922,
  "头": 923,
  "▁October": 924,
  "主要": 925,
  "是一个": 926,
  "▁show": 927,
  "▁account": 928,
  "▁value": 929,
  "ul": 930,
  "▁What": 931,
  "▁al": 932,
  "▁However": 933,
  "▁After": 934,
  "▁product": 935,
  "ting": 936,
  "ja": 937,
  "▁field": 938,
  "less": 939,
  "▁until": 940,
  "▁oil": 941,
  "▁X": 942,
  "▁conditions": 943,
  "▁decision": 944,
  "▁became": 945,
  "ut": 946,
  "用户": 947,
  "ti": 948,
  "并且": 949,
  "▁history": 950,
  "期": 951,
  "▁sub": 952,
  "处": 953,
  "ko": 954,
  "▁better": 955,
  "让": 956,
  "▁requirements": 957,
  "▁pro": 958,
  "线": 959,
  "▁September": 960,
  "▁La": 961,
  "区域": 962,
  "成为": 963,
  "美": 964,
  "▁trade": 965,
  "▁Be": 966,
  "▁never": 967,
  "▁line": 968,
  "▁always": 969,
  "▁past": 970,
  "▁might": 971,
  "▁Government": 972,
  "发": 973,
  "▁says": 974,
  "▁others": 975,
  "生产": 976,
  "▁today": 977,
  "▁hand": 978,
  "ir": 979,
  "▁came": 980,
  "四": 981,
  "▁type": 982,
  "▁course": 983,
  "rs": 984,
  "ga": 985,
  "又": 986,
  "ous": 987,
  "▁received": 988,
  "新的": 989,
  "拥有": 990,
  "必须": 991,
  "▁major": 992,
  "标准": 993,
  "land": 994,
  "▁given": 995,
  "▁Assembly": 996,
  "ge": 997,
  "来自": 998,
  "by": 999,
  "布": 1000,
  "▁November": 1001,
  "▁land": 1002,
  "▁single": 1003,
  "情况": 1004,
  "▁Ukraine": 1005,
  "量": 1006,
  "▁Security": 1007,
  "▁rate": 1008,
  "ating": 1009,
  "则": 1010,
  "▁particular": 1011,
  "▁April": 1012,
  "▁($": 1013,
  "▁hours": 1014,
  "约": 1015,
  "政策": 1016,
  "▁price": 1017,
  "▁months": 1018,
  "▁too": 1019,
  "▁little": 1020,
  "▁Chinese": 1021,
  "▁session": 1022,
  "▁far": 1023,
  "重": 1024,
  "▁modern": 1025,
  "次": 1026,
  "面": 1027,
  "▁established": 1028,
  "因": 1029,
  "▁built": 1030,
  "州": 1031,
  "▁These": 1032,
  "per": 1033,
  "▁natural": 1034,
  "ies": 1035,
  "▁staff": 1036,
  "ent": 1037,
  "▁able": 1038,
  "go": 1039,
  "利用": 1040,
  "▁draft": 1041,
  "入": 1042,
  "▁created": 1043,
  "▁half": 1044,
  "决定": 1045,
  "▁policy": 1046,
  "当": 1047,
  "▁give": 1048,
  "▁THE": 1049,
  "▁house": 1050,
  "▁resources": 1051,
  "山": 1052,
  "▁#": 1053,
  "瓦": 1054,
  "▁”": 1055,
  "va": 1056,
  "▁material": 1057,
  "lo": 1058,
  "非常": 1059,
  "▁program": 1060,
  "▁students": 1061,
  "欧洲": 1062,
  "酒店": 1063,
  "▁put": 1064,
  "ance": 1065,
  "▁...": 1066,
  "▁August": 1067,
  "▁construction": 1068,
  "主": 1069,
  "很": 1070,
  "▁left": 1071,
  "ny": 1072,
  "南": 1073,
  "▁age": 1074,
  "体": 1075,
  "实现": 1076,
  "人员": 1077,
  "▁projects": 1078,
  "▁things": 1079,
  "▁taken": 1080,
  "▁results": 1081,
  "▁treatment": 1082,
  "图": 1083,
  "路": 1084,
  "▁Pro": 1085,
  "▁f": 1086,
  "do": 1087,
  "▁implementation": 1088,
  "看": 1089,
  "网站": 1090,
  "电": 1091,
  "ke": 1092,
  "▁upon": 1093,
  "▁article": 1094,
  "事": 1095,
  "增加": 1096,
  "▁Institute": 1097,
  "例如": 1098,
  "▁America": 1099,
  "现在": 1100,
  "▁young": 1101,
  "see": 1102,
  "▁His": 1103,
  "we": 1104,
  "款": 1105,
  "▁average": 1106,
  "▁call": 1107,
  "▁side": 1108,
  "未": 1109,
  "市": 1110,
  "▁am": 1111,
  "ter": 1112,
  "之一": 1113,
  "▁common": 1114,
  "▁view": 1115,
  "▁That": 1116,
  "▁Moscow": 1117,
  "▁model": 1118,
  "两": 1119,
  "▁art": 1120,
  "mo": 1121,
  "der": 1122,
  "▁related": 1123,
  "▁programme": 1124,
  "▁Department": 1125,
  "▁create": 1126,
  "▁book": 1127,
  "权": 1128,
  "▁considered": 1129,
  "▁他": 1130,
  "▁certain": 1131,
  "▁whole": 1132,
  "部分": 1133,
  "▁growth": 1134,
  "物": 1135,
  "明": 1136,
  "而且": 1137,
  "ca": 1138,
  "▁higher": 1139,
  "资源": 1140,
  "方": 1141,
  "投资": 1142,
  "▁War": 1143,
  "▁issues": 1144,
  "如何": 1145,
  "min": 1146,
  "▁death": 1147,
  "▁along": 1148,
  "▁UN": 1149,
  "▁again": 1150,
  "ish": 1151,
  "▁Ltd": 1152,
  "time": 1153,
  "开发": 1154,
  "自己的": 1155,
  "作": 1156,
  "▁network": 1157,
  "▁inter": 1158,
  "▁foreign": 1159,
  "它们": 1160,
  "我们的": 1161,
  "奥": 1162,
  "▁test": 1163,
  "一种": 1164,
  "发现": 1165,
  "▁Do": 1166,
  "▁cases": 1167,
  "▁having": 1168,
  "继续": 1169,
  "建立": 1170,
  "程序": 1171,
  "▁love": 1172,
  "做": 1173,
  "哈": 1174,
  "应用": 1175,
  "▁community": 1176,
  "夫": 1177,
  "▁Union": 1178,
  "反": 1179,
  "指出": 1180,
  "就是": 1181,
  "促进": 1182,
  "像": 1183,
  "▁increased": 1184,
  "▁Minister": 1185,
  "ally": 1186,
  "▁basis": 1187,
  "▁sea": 1188,
  "第二": 1189,
  "局": 1190,
  "公": 1191,
  "大会": 1192,
  "网": 1193,
  "▁child": 1194,
  "▁Mo": 1195,
  "▁risk": 1196,
  "▁away": 1197,
  "▁i": 1198,
  "▁private": 1199,
  "▁From": 1200,
  "▁necessary": 1201,
  "功能": 1202,
  "▁Human": 1203,
  "nd": 1204,
  "▁Go": 1205,
  "▁top": 1206,
  "▁El": 1207,
  "▁Le": 1208,
  "▁groups": 1209,
  "低": 1210,
  "line": 1211,
  "so": 1212,
  "▁member": 1213,
  "▁ex": 1214,
  "▁protection": 1215,
  "▁Office": 1216,
  "之前": 1217,
  "▁cooperation": 1218,
  "之后": 1219,
  "▁personal": 1220,
  "ah": 1221,
  "▁role": 1222,
  "萨": 1223,
  "此": 1224,
  "▁OF": 1225,
  "▁legal": 1226,
  "主席": 1227,
  "ev": 1228,
  "▁capital": 1229,
  "ists": 1230,
  "▁North": 1231,
  "▁making": 1232,
  "正": 1233,
  "方法": 1234,
  "▁almost": 1235,
  "$": 1236,
  "▁series": 1237,
  "表": 1238,
  "城市": 1239,
  "pa": 1240,
  "协会": 1241,
  "德国": 1242,
  "▁capacity": 1243,
  "每": 1244,
  "ki": 1245,
  "诺": 1246,
  "▁My": 1247,
  "▁Ministry": 1248,
  "▁etc": 1249,
  "▁materials": 1250,
  "▁works": 1251,
  "人权": 1252,
  "如果": 1253,
  "▁short": 1254,
  "▁once": 1255,
  "▁largest": 1256,
  "省": 1257,
  "org": 1258,
  "▁living": 1259,
  "em": 1260,
  "但是": 1261,
  "▁provides": 1262,
  "▁six": 1263,
  "▁Law": 1264,
  "称": 1265,
  "语": 1266,
  "den": 1267,
  "▁budget": 1268,
  "▁technical": 1269,
  "▁key": 1270,
  "▁Convention": 1271,
  "▁gas": 1272,
  "▁former": 1273,
  "自由": 1274,
  "▁money": 1275,
  "▁position": 1276,
  "▁room": 1277,
  "▁designed": 1278,
  "Re": 1279,
  "▁ago": 1280,
  "请": 1281,
  "▁organizations": 1282,
  "▁look": 1283,
  "他们的": 1284,
  "普": 1285,
  "帮助": 1286,
  "▁going": 1287,
  "这是": 1288,
  "特别": 1289,
  "▁February": 1290,
  "▁needs": 1291,
  "那些": 1292,
  "开": 1293,
  "▁language": 1294,
  "电子": 1295,
  "▁action": 1296,
  "得到": 1297,
  "sky": 1298,
  "只": 1299,
  "领域": 1300,
  "ina": 1301,
  "▁San": 1302,
  "▁Rights": 1303,
  "你的": 1304,
  "▁across": 1305,
  "恩": 1306,
  "▁en": 1307,
  "▁began": 1308,
  "▁blood": 1309,
  "sa": 1310,
  "▁similar": 1311,
  "软件": 1312,
  "▁live": 1313,
  "▁Man": 1314,
  "规定": 1315,
  "实施": 1316,
  "迪": 1317,
  "▁Y": 1318,
  "门": 1319,
  "ba": 1320,
  "▁media": 1321,
  "上的": 1322,
  "书": 1323,
  "▁di": 1324,
  "ex": 1325,
  "托": 1326,
  "材料": 1327,
  "▁Mar": 1328,
  "ful": 1329,
  "ted": 1330,
  "我的": 1331,
  "法国": 1332,
  "波": 1333,
  "tra": 1334,
  "▁Africa": 1335,
  "▁care": 1336,
  "▁Germany": 1337,
  "措施": 1338,
  "▁German": 1339,
  "▁Center": 1340,
  "▁performance": 1341,
  "like": 1342,
  "神": 1343,
  "▁content": 1344,
  "▁something": 1345,
  "空间": 1346,
  "▁additional": 1347,
  "▁party": 1348,
  "▁standard": 1349,
  "▁kind": 1350,
  "影响": 1351,
  "▁costs": 1352,
  "▁village": 1353,
  "▁terms": 1354,
  "▁Bo": 1355,
  "和其他": 1356,
  "▁Ma": 1357,
  "流": 1358,
  "您的": 1359,
  "▁Ta": 1360,
  "▁multi": 1361,
  "▁especially": 1362,
  "▁Director": 1363,
  "▁night": 1364,
  "▁individual": 1365,
  "▁persons": 1366,
  "▁required": 1367,
  "▁Di": 1368,
  "▁application": 1369,
  "因此": 1370,
  "▁game": 1371,
  "之间": 1372,
  "▁Na": 1373,
  "位于": 1374,
  "带": 1375,
  "les": 1376,
  "▁French": 1377,
  "▁document": 1378,
  "▁visit": 1379,
  "想": 1380,
  "ang": 1381,
  "参与": 1382,
  "商": 1383,
  "内容": 1384,
  "▁Conference": 1385,
  "号决议": 1386,
  "▁Li": 1387,
  "日本": 1388,
  "相": 1389,
  "完全": 1390,
  "调查": 1391,
  "▁我们": 1392,
  "▁Ar": 1393,
  "▁start": 1394,
  "科学": 1395,
  "级": 1396,
  "率": 1397,
  "▁contact": 1398,
  "za": 1399,
  "期间": 1400,
  "方式": 1401,
  "op": 1402,
  "▁online": 1403,
  "总": 1404,
  "▁office": 1405,
  "▁specific": 1406,
  "”,": 1407,
  "不同": 1408,
  "wa": 1409,
  "▁effect": 1410,
  "姆": 1411,
  "家庭": 1412,
  "林": 1413,
  "▁Service": 1414,
  "ab": 1415,
  "▁included": 1416,
  "▁code": 1417,
  "相关": 1418,
  "集团": 1419,
  "▁medical": 1420,
  "ha": 1421,
  "台": 1422,
  "ite": 1423,
  "成员": 1424,
  "ities": 1425,
  "ek": 1426,
  "▁ever": 1427,
  "▁City": 1428,
  "勒": 1429,
  "▁regional": 1430,
  "▁Hotel": 1431,
  "▁offers": 1432,
  "day": 1433,
  "▁plan": 1434,
  "数": 1435,
  "▁measures": 1436,
  "▁reported": 1437,
  "▁fire": 1438,
  "不是": 1439,
  "及其": 1440,
  "经": 1441,
  "▁whether": 1442,
  "▁complex": 1443,
  "▁told": 1444,
  "si": 1445,
  "▁Bank": 1446,
  "接受": 1447,
  "能力": 1448,
  "再": 1449,
  "两个": 1450,
  "一项": 1451,
  "▁Lu": 1452,
  "ana": 1453,
  "▁problems": 1454,
  "分析": 1455,
  "行为": 1456,
  "▁During": 1457,
  "▁environment": 1458,
  "▁Or": 1459,
  "▁close": 1460,
  "提出": 1461,
  "节": 1462,
  "▁Con": 1463,
  "▁France": 1464,
  "文化": 1465,
  "运动": 1466,
  "▁property": 1467,
  "▁English": 1468,
  "We": 1469,
  "▁levels": 1470,
  "led": 1471,
  "▁center": 1472,
  "部门": 1473,
  "ig": 1474,
  "工业": 1475,
  "五": 1476,
  "▁East": 1477,
  "维": 1478,
  "ical": 1479,
  "定": 1480,
  "tro": 1481,
  "▁analysis": 1482,
  "▁ensure": 1483,
  "▁century": 1484,
  "▁includes": 1485,
  "%,": 1486,
  "雷": 1487,
  "▁size": 1488,
  "▁heart": 1489,
  "▁Bar": 1490,
  "军": 1491,
  "加强": 1492,
  "▁activity": 1493,
  "回": 1494,
  "▁Asia": 1495,
  "SR": 1496,
  "业务": 1497,
  "信": 1498,
  "▁India": 1499,
  "减少": 1500,
  "制": 1501,
  "▁website": 1502,
  "▁Of": 1503,
  "▁town": 1504,
  "▁why": 1505,
  "▁situation": 1506,
  "▁Code": 1507,
  "▁itself": 1508,
  "ler": 1509,
  "bo": 1510,
  "塞": 1511,
  "▁yet": 1512,
  "各种": 1513,
  "同时": 1514,
  "合": 1515,
  "理事会": 1516,
  "▁nature": 1517,
  "▁software": 1518,
  "们": 1519,
  "战略": 1520,
  "▁really": 1521,
  "▁lower": 1522,
  "不能": 1523,
  "tic": 1524,
  "▁seen": 1525,
  "印度": 1526,
  "sk": 1527,
  "▁Ad": 1528,
  "工具": 1529,
  "游戏": 1530,
  "▁Special": 1531,
  "].": 1532,
  "▁Pa": 1533,
  "类": 1534,
  "ru": 1535,
  "▁machine": 1536,
  "测试": 1537,
  "平台": 1538,
  "一次": 1539,
  "贸易": 1540,
  "评估": 1541,
  "▁Our": 1542,
  "▁York": 1543,
  "▁police": 1544,
  "爱": 1545,
  "our": 1546,
  "▁parts": 1547,
  "访问": 1548,
  "▁II": 1549,
  "基于": 1550,
  "秘书长": 1551,
  "次会议上": 1552,
  "▁adopted": 1553,
  "希望": 1554,
  "非洲": 1555,
  "out": 1556,
  "▁Social": 1557,
  "▁question": 1558,
  "fa": 1559,
  "▁list": 1560,
  "▁forces": 1561,
  "单": 1562,
  "▁problem": 1563,
  "▁force": 1564,
  "▁accordance": 1565,
  "▁whose": 1566,
  "目前": 1567,
  "▁plant": 1568,
  "▁date": 1569,
  "▁week": 1570,
  "▁Central": 1571,
  "教": 1572,
  "ac": 1573,
  "ak": 1574,
  "▁High": 1575,
  "▁taking": 1576,
  "提高": 1577,
  "意": 1578,
  "red": 1579,
  "客户": 1580,
  "▁developing": 1581,
  "▁believe": 1582,
  "▁society": 1583,
  "ial": 1584,
  "通": 1585,
  "▁unique": 1586,
  "▁Su": 1587,
  "▁event": 1588,
  "许多": 1589,
  "vo": 1590,
  "完成": 1591,
  "▁film": 1592,
  "▁went": 1593,
  "解决": 1594,
  "▁offer": 1595,
  "▁District": 1596,
  "ci": 1597,
  "can": 1598,
  "end": 1599,
  "ft": 1600,
  "▁share": 1601,
  "▁organization": 1602,
  "ize": 1603,
  "转": 1604,
  "▁read": 1605,
  "▁pay": 1606,
  "if": 1607,
  "确保": 1608,
  "社区": 1609,
  "热": 1610,
  "▁changes": 1611,
  "▁Japan": 1612,
  "▁income": 1613,
  "ber": 1614,
  "身": 1615,
  "▁recent": 1616,
  "审查": 1617,
  "ence": 1618,
  "dy": 1619,
  "采用": 1620,
  "▁How": 1621,
  "Rev": 1622,
  "▁method": 1623,
  "气": 1624,
  "▁patients": 1625,
  "▁themselves": 1626,
  "▁knowledge": 1627,
  "第三": 1628,
  "▁led": 1629,
  "▁play": 1630,
  "▁month": 1631,
  "值": 1632,
  "以下": 1633,
  "=": 1634,
  "近": 1635,
  "ze": 1636,
  "章": 1637,
  "chi": 1638,
  "目标": 1639,
  "▁named": 1640,
  "▁该": 1641,
  "mon": 1642,
  "超过": 1643,
  "城": 1644,
  "派": 1645,
  "lin": 1646,
  "共同": 1647,
  "▁either": 1648,
  "▁potential": 1649,
  "列": 1650,
  "ner": 1651,
  "洛": 1652,
  "女": 1653,
  "直接": 1654,
  "▁Se": 1655,
  "▁published": 1656,
  "net": 1657,
  "显示": 1658,
  "都是": 1659,
  "政治": 1660,
  "od": 1661,
  "ors": 1662,
  "▁leading": 1663,
  "▁exchange": 1664,
  "一样": 1665,
  "▁operations": 1666,
  "关系": 1667,
  "第一": 1668,
  "▁thought": 1669,
  "是否": 1670,
  "曼": 1671,
  "dis": 1672,
  "▁got": 1673,
  "▁investment": 1674,
  "吉": 1675,
  "▁however": 1676,
  "▁此外": 1677,
  "动": 1678,
  "▁cannot": 1679,
  "采取": 1680,
  "all": 1681,
  "▁根据": 1682,
  "系列": 1683,
  "进一步": 1684,
  "▁effective": 1685,
  "▁applications": 1686,
  "打": 1687,
  "▁interest": 1688,
  "参加": 1689,
  "▁cells": 1690,
  "▁Ka": 1691,
  "▁popular": 1692,
  "▁structure": 1693,
  "▁Ne": 1694,
  "au": 1695,
  "▁types": 1696,
  "协议": 1697,
  "ium": 1698,
  "▁continue": 1699,
  "健康": 1700,
  "负责": 1701,
  "ver": 1702,
  "审议": 1703,
  "▁respect": 1704,
  "but": 1705,
  "▁Q": 1706,
  "▁attention": 1707,
  "ley": 1708,
  "▁words": 1709,
  "▁strong": 1710,
  "▁though": 1711,
  "汽车": 1712,
  "银行": 1713,
  "▁d": 1714,
  "term": 1715,
  "圣": 1716,
  "▁lead": 1717,
  "学生": 1718,
  "▁started": 1719,
  "▁Sa": 1720,
  "森": 1721,
  "▁Economic": 1722,
  "▁enough": 1723,
  "工": 1724,
  "只有": 1725,
  "层": 1726,
  "间": 1727,
  "▁disease": 1728,
  "▁Ha": 1729,
  "gi": 1730,
  "▁Act": 1731,
  "▁complete": 1732,
  "▁Company": 1733,
  "▁lot": 1734,
  "星": 1735,
  "▁meet": 1736,
  "▁第": 1737,
  "▁reports": 1738,
  "▁features": 1739,
  "花": 1740,
  "io": 1741,
  "▁John": 1742,
  "▁traditional": 1743,
  "▁users": 1744,
  "▁word": 1745,
  "▁professional": 1746,
  "▁video": 1747,
  "▁clear": 1748,
  "▁events": 1749,
  "站": 1750,
  "Al": 1751,
  "事务": 1752,
  "that": 1753,
  "not": 1754,
  "你们": 1755,
  "▁Me": 1756,
  "库": 1757,
  "▁Car": 1758,
  "▁Pre": 1759,
  "▁|": 1760,
  "口": 1761,
  "▁makes": 1762,
  "▁big": 1763,
  "▁Some": 1764,
  "▁himself": 1765,
  "▁如果": 1766,
  "▁culture": 1767,
  "▁class": 1768,
  "个人": 1769,
  "▁Association": 1770,
  "▁born": 1771,
  "对于": 1772,
  "▁compared": 1773,
  "兰": 1774,
  "ova": 1775,
  "看到": 1776,
  "▁rather": 1777,
  "▁operation": 1778,
  "pe": 1779,
  "曾": 1780,
  "▁Lo": 1781,
  "vi": 1782,
  "ap": 1783,
  "无法": 1784,
  "原": 1785,
  "US": 1786,
  "场": 1787,
  "po": 1788,
  "ology": 1789,
  "▁Federation": 1790,
  "qui": 1791,
  "tu": 1792,
  "组": 1793,
  "▁paper": 1794,
  "mer": 1795,
  "▁Research": 1796,
  "人的": 1797,
  "▁subject": 1798,
  "▁develop": 1799,
  "▁pressure": 1800,
  "年的": 1801,
  "东": 1802,
  "▁thing": 1803,
  "莱": 1804,
  "▁supply": 1805,
  "ification": 1806,
  "重新": 1807,
  "▁Technology": 1808,
  "▁travel": 1809,
  "gu": 1810,
  "人类": 1811,
  "秘书处": 1812,
  "▁super": 1813,
  "▁official": 1814,
  "▁estimated": 1815,
  "以色列": 1816,
  "ard": 1817,
  "核": 1818,
  "▁improve": 1819,
  "英国": 1820,
  "受到": 1821,
  "▁这": 1822,
  "way": 1823,
  "my": 1824,
  "商业": 1825,
  "▁la": 1826,
  "发生": 1827,
  "que": 1828,
  "了解": 1829,
  "▁final": 1830,
  "生活": 1831,
  "基金": 1832,
  "▁Tel": 1833,
  "▁significant": 1834,
  "老": 1835,
  "费": 1836,
  "▁famous": 1837,
  "▁father": 1838,
  "▁hard": 1839,
  "甚至": 1840,
  "▁minutes": 1841,
  "事件": 1842,
  "ator": 1843,
  "▁build": 1844,
  "学校": 1845,
  "q": 1846,
  "gen": 1847,
  "▁mind": 1848,
  "的是": 1849,
  "交易": 1850,
  "ability": 1851,
  "uk": 1852,
  "▁woman": 1853,
  "▁station": 1854,
  "▁Park": 1855,
  "▁scientific": 1856,
  "▁approach": 1857,
  "结构": 1858,
  "加拿大": 1859,
  "▁term": 1860,
  "ron": 1861,
  "提交": 1862,
  "▁First": 1863,
  "意大利": 1864,
  "▁tax": 1865,
  "▁Israel": 1866,
  "专家": 1867,
  "▁micro": 1868,
  "建筑": 1869,
  "▁Since": 1870,
  "▁assistance": 1871,
  "▁face": 1872,
  "▁version": 1873,
  "色": 1874,
  "▁white": 1875,
  "▁customers": 1876,
  "▁Health": 1877,
  "▁industrial": 1878,
  "▁done": 1879,
  "取": 1880,
  "▁previous": 1881,
  "结果": 1882,
  "▁music": 1883,
  "yan": 1884,
  "▁physical": 1885,
  "▁safety": 1886,
  "古": 1887,
  "▁thousand": 1888,
  "▁Fund": 1889,
  "▁West": 1890,
  "人们": 1891,
  "▁device": 1892,
  "▁source": 1893,
  "按": 1894,
  "联": 1895,
  "缔约国": 1896,
  "然后": 1897,
  "lan": 1898,
  "努力": 1899,
  "▁Board": 1900,
  "ative": 1901,
  "▁Ra": 1902,
  "河": 1903,
  "▁review": 1904,
  "▁road": 1905,
  "▁won": 1906,
  "小组": 1907,
  "▁Centre": 1908,
  "▁Sea": 1909,
  "▁Court": 1910,
  "专业": 1911,
  "说明": 1912,
  "art": 1913,
  "ji": 1914,
  "进入": 1915,
  "%)": 1916,
  "▁matter": 1917,
  "▁author": 1918,
  "奇": 1919,
  "讨论": 1920,
  "▁black": 1921,
  "▁outside": 1922,
  "▁note": 1923,
  "are": 1924,
  "索": 1925,
  "▁School": 1926,
  "制造": 1927,
  "联盟": 1928,
  "ung": 1929,
  "按照": 1930,
  "费用": 1931,
  "▁return": 1932,
  "▁g": 1933,
  "www": 1934,
  "联合": 1935,
  "博": 1936,
  "不会": 1937,
  "&": 1938,
  "首": 1939,
  "▁transport": 1940,
  "▁cause": 1941,
  "▁While": 1942,
  "生物": 1943,
  "CO": 1944,
  "皮": 1945,
  "▁efforts": 1946,
  "▁turn": 1947,
  "hu": 1948,
  "▁below": 1949,
  "品": 1950,
  "▁proposed": 1951,
  "▁Ex": 1952,
  "应该": 1953,
  "有限公司": 1954,
  "▁impact": 1955,
  "related": 1956,
  "▁cancer": 1957,
  "片": 1958,
  "▁sent": 1959,
  "治疗": 1960,
  "行业": 1961,
  "▁request": 1962,
  "之间的": 1963,
  "确定": 1964,
  "▁address": 1965,
  "培训": 1966,
  "ck": 1967,
  "▁mother": 1968,
  "▁currently": 1969,
  "日至": 1970,
  "提供了": 1971,
  "▁central": 1972,
  "▁understand": 1973,
  "▁keep": 1974,
  "英": 1975,
  "▁written": 1976,
  "▁Organization": 1977,
  "届会议": 1978,
  "▁economy": 1979,
  "火": 1980,
  "▁text": 1981,
  "▁original": 1982,
  "ino": 1983,
  "▁function": 1984,
  "半": 1985,
  "▁studies": 1986,
  "▁sector": 1987,
  "nes": 1988,
  "▁weight": 1989,
  "▁Soviet": 1990,
  "▁active": 1991,
  "▁hotel": 1992,
  "▁carried": 1993,
  "▁direct": 1994,
  "▁People": 1995,
  "▁run": 1996,
  "▁son": 1997,
  "▁facilities": 1998,
  "▁seven": 1999,
  "的工作": 2000,
  "om": 2001,
  "种": 2002,
  "▁joint": 2003,
  "的一个": 2004,
  "@": 2005,
  "▁likely": 2006,
  "数字": 2007,
  "▁issue": 2008,
  "which": 2009,
  "ee": 2010,
  "▁Report": 2011,
  "▁added": 2012,
  "视频": 2013,
  "▁=": 2014,
  "oc": 2015,
  "HRC": 2016,
  "ham": 2017,
  "▁entire": 2018,
  "变": 2019,
  "▁Home": 2020,
  "▁Canada": 2021,
  "▁Is": 2022,
  "▁computer": 2023,
  "ow": 2024,
  "iz": 2025,
  "资料": 2026,
  "▁page": 2027,
  "▁paragraph": 2028,
  "设施": 2029,
  "▁Not": 2030,
  "▁agreement": 2031,
  "工程": 2032,
  "俄罗斯": 2033,
  "▁Ro": 2034,
  "▁institutions": 2035,
  "保持": 2036,
  "ven": 2037,
  "▁district": 2038,
  "▁late": 2039,
  "模式": 2040,
  "人民": 2041,
  "▁surface": 2042,
  "▁British": 2043,
  "双": 2044,
  "▁true": 2045,
  "▁Ho": 2046,
  "协调": 2047,
  "▁relevant": 2048,
  "管": 2049,
  "油": 2050,
  "▁states": 2051,
  "由于": 2052,
  "▁Earth": 2053,
  "记录": 2054,
  "▁fully": 2055,
  "题为": 2056,
  "port": 2057,
  "ise": 2058,
  "价格": 2059,
  "▁w": 2060,
  "▁ancient": 2061,
  "▁practice": 2062,
  "北": 2063,
  "风": 2064,
  "▁reason": 2065,
  "▁Inter": 2066,
  "支助": 2067,
  "▁v": 2068,
  "▁cultural": 2069,
  "▁speed": 2070,
  "形": 2071,
  "▁produced": 2072,
  "▁idea": 2073,
  "▁nuclear": 2074,
  "▁wide": 2075,
  "▁beginning": 2076,
  "提": 2077,
  "▁science": 2078,
  "ide": 2079,
  "iv": 2080,
  "微": 2081,
  "▁devices": 2082,
  "工作组": 2083,
  "公共": 2084,
  "▁phone": 2085,
  "员": 2086,
  "ong": 2087,
  "▁purpose": 2088,
  "ship": 2089,
  "▁front": 2090,
  "▁map": 2091,
  "超": 2092,
  "▁Her": 2093,
  "创新": 2094,
  "▁decided": 2095,
  "通常": 2096,
  "▁Can": 2097,
  "白": 2098,
  "▁公司": 2099,
  "▁noted": 2100,
  "▁allow": 2101,
  "▁introduced": 2102,
  "还有": 2103,
  "▁user": 2104,
  "也是": 2105,
  "▁African": 2106,
  "▁Programme": 2107,
  "▁points": 2108,
  "▁particularly": 2109,
  "ok": 2110,
  "ten": 2111,
  "埃": 2112,
  "达到": 2113,
  "▁existing": 2114,
  "针对": 2115,
  "能源": 2116,
  "tor": 2117,
  "▁ground": 2118,
  "▁representative": 2119,
  "▁environmental": 2120,
  "知道": 2121,
  "▁statement": 2122,
  "▁loss": 2123,
  "mi": 2124,
  "▁stage": 2125,
  "▁brain": 2126,
  "▁status": 2127,
  "▁annual": 2128,
  "▁Model": 2129,
  "放": 2130,
  "OS": 2131,
  "代": 2132,
  "IP": 2133,
  "ou": 2134,
  "▁Air": 2135,
  "艺术": 2136,
  "zi": 2137,
  "一般": 2138,
  "▁rest": 2139,
  "▁usually": 2140,
  "▁House": 2141,
  "▁TV": 2142,
  "yl": 2143,
  "新闻": 2144,
  "AP": 2145,
  "▁workers": 2146,
  "▁Per": 2147,
  "共": 2148,
  "性的": 2149,
  "PC": 2150,
  "队": 2151,
  "写": 2152,
  "学习": 2153,
  "bi": 2154,
  "▁Church": 2155,
  "特别是": 2156,
  "▁solution": 2157,
  "pro": 2158,
  "更多": 2159,
  "▁Affairs": 2160,
  "▁Art": 2161,
  "华": 2162,
  "▁Information": 2163,
  "注意到": 2164,
  "kin": 2165,
  "进": 2166,
  "▁parties": 2167,
  "▁forms": 2168,
  "yn": 2169,
  "▁record": 2170,
  "▁Other": 2171,
  "▁units": 2172,
  "是在": 2173,
  "的第": 2174,
  "▁brought": 2175,
  "限制": 2176,
  "项": 2177,
  "石": 2178,
  "▁authorities": 2179,
  "▁story": 2180,
  "ring": 2181,
  "▁director": 2182,
  "▁digital": 2183,
  "▁effects": 2184,
  "bar": 2185,
  "▁longer": 2186,
  "off": 2187,
  "▁simple": 2188,
  "▁Ms": 2189,
  "ure": 2190,
  "▁therefore": 2191,
  "沙": 2192,
  "let": 2193,
  "izing": 2194,
  "▁standards": 2195,
  "▁towards": 2196,
  "▁researchers": 2197,
  "支付": 2198,
  "▁section": 2199,
  "▁Ni": 2200,
  "▁Lord": 2201,
  "ik": 2202,
  "▁methods": 2203,
  "和平": 2204,
  "▁easy": 2205,
  "▁expected": 2206,
  "cha": 2207,
  "▁sales": 2208,
  "▁Da": 2209,
  "宣布": 2210,
  "▁actually": 2211,
  "ran": 2212,
  "全国": 2213,
  "ster": 2214,
  "▁directly": 2215,
  "▁evidence": 2216,
  "深": 2217,
  "▁comes": 2218,
  "▁sense": 2219,
  "▁saw": 2220,
  "▁Day": 2221,
  "什么": 2222,
  "▁highest": 2223,
  "存在": 2224,
  "▁bank": 2225,
  "球": 2226,
  "王": 2227,
  "fi": 2228,
  "▁En": 2229,
  "▁submitted": 2230,
  "有效": 2231,
  "▁providing": 2232,
  "▁associated": 2233,
  "▁Internet": 2234,
  "▁Now": 2235,
  "自然": 2236,
  "预算": 2237,
  "▁court": 2238,
  "ot": 2239,
  "▁platform": 2240,
  "世纪": 2241,
  "▁attack": 2242,
  "▁《": 2243,
  "木": 2244,
  "▁bring": 2245,
  "空": 2246,
  "板": 2247,
  "fer": 2248,
  "制度": 2249,
  "▁mass": 2250,
  "销售": 2251,
  "人口": 2252,
  "car": 2253,
  "还是": 2254,
  "权利": 2255,
  "over": 2256,
  "▁soon": 2257,
  "水平": 2258,
  "允许": 2259,
  "▁reached": 2260,
  "民": 2261,
  "▁questions": 2262,
  "▁involved": 2263,
  "解决方案": 2264,
  "立": 2265,
  "ions": 2266,
  "考虑": 2267,
  "吗": 2268,
  "联系": 2269,
  "▁contained": 2270,
  "je": 2271,
  "ud": 2272,
  "▁whom": 2273,
  "Pro": 2274,
  "▁peace": 2275,
  "地方": 2276,
  "病": 2277,
  "六": 2278,
  "▁Po": 2279,
  "tin": 2280,
  "▁reduce": 2281,
  "▁bio": 2282,
  "ag": 2283,
  "蒂": 2284,
  "船": 2285,
  "▁domestic": 2286,
  "du": 2287,
  "▁response": 2288,
  "▁technologies": 2289,
  "▁commercial": 2290,
  "每个": 2291,
  "这样": 2292,
  "with": 2293,
  "DP": 2294,
  "▁contract": 2295,
  "ning": 2296,
  "▁documents": 2297,
  "页": 2298,
  "▁movement": 2299,
  "的问题": 2300,
  "只是": 2301,
  "那么": 2302,
  "▁recently": 2303,
  "▁EU": 2304,
  "▁lost": 2305,
  "重要": 2306,
  "▁aircraft": 2307,
  "▁Un": 2308,
  "▁beautiful": 2309,
  "▁allows": 2310,
  "▁appropriate": 2311,
  "▁Product": 2312,
  "▁CO": 2313,
  "tion": 2314,
  "西班牙": 2315,
  "赫": 2316,
  "她的": 2317,
  "▁needed": 2318,
  "▁elements": 2319,
  "ised": 2320,
  "▁feel": 2321,
  "▁everything": 2322,
  "▁Region": 2323,
  "▁territory": 2324,
  "行政": 2325,
  "▁goods": 2326,
  "语言": 2327,
  "战": 2328,
  "▁bar": 2329,
  "ual": 2330,
  "极": 2331,
  "▁drug": 2332,
  "涉及": 2333,
  "▁mobile": 2334,
  ",“": 2335,
  "▁border": 2336,
  "▁connection": 2337,
  "▁basic": 2338,
  "▁let": 2339,
  "帕": 2340,
  "▁Christ": 2341,
  "▁base": 2342,
  "走": 2343,
  "▁web": 2344,
  "▁unit": 2345,
  "▁color": 2346,
  "赛": 2347,
  "连接": 2348,
  "开展": 2349,
  "▁cities": 2350,
  "鲁": 2351,
  "平": 2352,
  "su": 2353,
  "▁Great": 2354,
  "▁Global": 2355,
  "机制": 2356,
  "▁net": 2357,
  "eva": 2358,
  "ho": 2359,
  "De": 2360,
  "整个": 2361,
  "▁More": 2362,
  "▁solutions": 2363,
  "▁fuel": 2364,
  "▁thus": 2365,
  "▁looking": 2366,
  "▁prevent": 2367,
  "▁temperature": 2368,
  "▁System": 2369,
  "▁Management": 2370,
  "▁nothing": 2371,
  "元": 2372,
  "ping": 2373,
  "che": 2374,
  "女士": 2375,
  "ez": 2376,
  "莫": 2377,
  "sha": 2378,
  "▁rules": 2379,
  "▁AND": 2380,
  "▁Italy": 2381,
  "▁Article": 2382,
  "▁responsible": 2383,
  "最终": 2384,
  "▁presented": 2385,
  "ons": 2386,
  "IT": 2387,
  "最近": 2388,
  "细胞": 2389,
  "▁Women": 2390,
  "sen": 2391,
  "use": 2392,
  "▁highly": 2393,
  "▁issued": 2394,
  "且": 2395,
  "fe": 2396,
  "▁killed": 2397,
  "ible": 2398,
  "mar": 2399,
  "▁communication": 2400,
  "▁关于": 2401,
  "▁square": 2402,
  "以便": 2403,
  "▁shows": 2404,
  "法院": 2405,
  "收入": 2406,
  "独立": 2407,
  "报": 2408,
  "▁ability": 2409,
  "任务": 2410,
  "▁receive": 2411,
  "业": 2412,
  "CRP": 2413,
  "任": 2414,
  "▁framework": 2415,
  "▁Kazakhstan": 2416,
  "件": 2417,
  "▁processes": 2418,
  "团队": 2419,
  "▁throughout": 2420,
  "▁gave": 2421,
  "▁para": 2422,
  "版": 2423,
  "gar": 2424,
  "卫星": 2425,
  "▁你": 2426,
  "选": 2427,
  "▁approved": 2428,
  "€": 2429,
  "▁died": 2430,
  "梅": 2431,
  "▁Party": 2432,
  "▁Za": 2433,
  "▁cell": 2434,
  "▁limited": 2435,
  "太": 2436,
  "音乐": 2437,
  "ani": 2438,
  "▁IN": 2439,
  "▁Mi": 2440,
  "岁": 2441,
  "▁species": 2442,
  "ue": 2443,
  "死": 2444,
  "▁described": 2445,
  "▁red": 2446,
  "一直": 2447,
  "制定": 2448,
  "▁Trade": 2449,
  "媒体": 2450,
  "▁Ver": 2451,
  "世": 2452,
  "进行了": 2453,
  "金融": 2454,
  "远": 2455,
  "情": 2456,
  "▁但是": 2457,
  "ren": 2458,
  "▁因此": 2459,
  "wi": 2460,
  "jo": 2461,
  "课程": 2462,
  "仍然": 2463,
  "ES": 2464,
  "▁relations": 2465,
  "ED": 2466,
  "▁protect": 2467,
  "▁ten": 2468,
  "贝": 2469,
  "▁civil": 2470,
  "总统": 2471,
  "TM": 2472,
  "条件": 2473,
  "距离": 2474,
  "▁meters": 2475,
  "—": 2476,
  "需求": 2477,
  "CP": 2478,
  "▁Western": 2479,
  "zh": 2480,
  "pre": 2481,
  "▁gold": 2482,
  "调": 2483,
  "▁operating": 2484,
  "▁produce": 2485,
  "电影": 2486,
  "听": 2487,
  "交": 2488,
  "▁它": 2489,
  "▁cross": 2490,
  "▁Non": 2491,
  "▁please": 2492,
  "学院": 2493,
  "▁stop": 2494,
  "一起": 2495,
  "sch": 2496,
  "士": 2497,
  "▁table": 2498,
  "▁Then": 2499,
  "次会议": 2500,
  "▁image": 2501,
  "▁worked": 2502,
  "▁dated": 2503,
  "▁Ja": 2504,
  "质量": 2505,
  "澳大利亚": 2506,
  "公里": 2507,
  "方面的": 2508,
  "▁Sh": 2509,
  "set": 2510,
  "▁earth": 2511,
  "▁wife": 2512,
  "均": 2513,
  "装": 2514,
  "cho": 2515,
  "▁lives": 2516,
  "istic": 2517,
  "不同的": 2518,
  "的时候": 2519,
  "框架": 2520,
  "房": 2521,
  "▁Arab": 2522,
  "mat": 2523,
  "▁friends": 2524,
  "▁asked": 2525,
  "来说": 2526,
  "军事": 2527,
  "希": 2528,
  "▁这些": 2529,
  "一名": 2530,
  "▁London": 2531,
  "声": 2532,
  "▁met": 2533,
  "感": 2534,
  "including": 2535,
  "言": 2536,
  "han": 2537,
  "mp": 2538,
  "历史": 2539,
  "▁Your": 2540,
  "占": 2541,
  "▁Roman": 2542,
  "▁plans": 2543,
  "自动": 2544,
  "购买": 2545,
  "▁regions": 2546,
  "▁ship": 2547,
  "同意": 2548,
  "产": 2549,
  "▁independent": 2550,
  "▁creation": 2551,
  "EC": 2552,
  "It": 2553,
  "岛": 2554,
  "▁Number": 2555,
  "▁star": 2556,
  "▁processing": 2557,
  "▁via": 2558,
  "▁greater": 2559,
  "▁Price": 2560,
  "▁Foreign": 2561,
  "ans": 2562,
  "▁takes": 2563,
  "▁Fa": 2564,
  "▁Am": 2565,
  "▁Jo": 2566,
  "援助": 2567,
  "har": 2568,
  "增长": 2569,
  "导致": 2570,
  "意见": 2571,
  "伦": 2572,
  "指": 2573,
  "AL": 2574,
  "▁Sub": 2575,
  "ments": 2576,
  "▁reach": 2577,
  "▁Japanese": 2578,
  "▁vehicles": 2579,
  "▁views": 2580,
  "办公室": 2581,
  "▁move": 2582,
  "案": 2583,
  "室": 2584,
  "在其": 2585,
  "▁King": 2586,
  "▁demand": 2587,
  "▁inside": 2588,
  "%.": 2589,
  "▁l": 2590,
  "合同": 2591,
  "女性": 2592,
  "先": 2593,
  "▁eight": 2594,
  "▁follow": 2595,
  "一位": 2596,
  "▁search": 2597,
  "CC": 2598,
  "小时": 2599,
  "通知": 2600,
  "规则": 2601,
  "移动": 2602,
  "的新": 2603,
  "▁relationship": 2604,
  "▁quite": 2605,
  "产生": 2606,
  "伯": 2607,
  "当地": 2608,
  "▁birth": 2609,
  "范围": 2610,
  "ped": 2611,
  "届": 2612,
  "▁released": 2613,
  "▁learn": 2614,
  "▁tell": 2615,
  "......": 2616,
  "▁letter": 2617,
  "?\"": 2618,
  "▁Si": 2619,
  "注册": 2620,
  "品牌": 2621,
  "亿": 2622,
  "▁progress": 2623,
  "▁focus": 2624,
  "▁behind": 2625,
  "▁round": 2626,
  "论坛": 2627,
  "▁bodies": 2628,
  "▁promote": 2629,
  "▁然而": 2630,
  "▁mission": 2631,
  "▁island": 2632,
  "▁board": 2633,
  "▁Museum": 2634,
  "才": 2635,
  "剂": 2636,
  "▁north": 2637,
  "提出的": 2638,
  "团": 2639,
  "hr": 2640,
  "座": 2641,
  "▁prices": 2642,
  "视": 2643,
  "▁但": 2644,
  "bu": 2645,
  "▁Korea": 2646,
  "旨在": 2647,
  "▁season": 2648,
  "▁nearly": 2649,
  "▁difficult": 2650,
  "黑": 2651,
  "▁stay": 2652,
  "▁leader": 2653,
  "第四": 2654,
  "rd": 2655,
  "运行": 2656,
  "运输": 2657,
  "▁Member": 2658,
  "电视": 2659,
  "▁influence": 2660,
  "快速": 2661,
  "找到": 2662,
  "▁Sch": 2663,
  "却": 2664,
  "ps": 2665,
  "▁Most": 2666,
  "ations": 2667,
  "lu": 2668,
  "▁(+": 2669,
  "ice": 2670,
  "MS": 2671,
  "II": 2672,
  "强": 2673,
  "▁Indian": 2674,
  "▁sure": 2675,
  "▁Tu": 2676,
  "▁south": 2677,
  "▁Iran": 2678,
  "包含": 2679,
  "▁Last": 2680,
  "▁president": 2681,
  "▁continued": 2682,
  "关注": 2683,
  "IC": 2684,
  "▁regular": 2685,
  "ell": 2686,
  "介绍": 2687,
  "act": 2688,
  "ku": 2689,
  "▁trans": 2690,
  "▁individuals": 2691,
  "av": 2692,
  "▁religious": 2693,
  "▁shown": 2694,
  "▁understanding": 2695,
  "ological": 2696,
  "▁Euro": 2697,
  "农业": 2698,
  "ger": 2699,
  "▁lack": 2700,
  "▁transfer": 2701,
  "▁sources": 2702,
  "十": 2703,
  "▁sex": 2704,
  "成功": 2705,
  "举行": 2706,
  "▁fish": 2707,
  "的所有": 2708,
  "▁representatives": 2709,
  "CD": 2710,
  "zo": 2711,
  "ash": 2712,
  "并在": 2713,
  "共和国": 2714,
  "集": 2715,
  "改变": 2716,
  "▁announced": 2717,
  "符合": 2718,
  "▁although": 2719,
  "▁Ri": 2720,
  "草案": 2721,
  "▁sometimes": 2722,
  "tan": 2723,
  "▁Working": 2724,
  "▁Project": 2725,
  "ns": 2726,
  "从而": 2727,
  "架": 2728,
  "br": 2729,
  "free": 2730,
  "▁Du": 2731,
  "加入": 2732,
  "▁tools": 2733,
  "▁Gu": 2734,
  "▁balance": 2735,
  "瑞士": 2736,
  "▁schools": 2737,
  "▁concerning": 2738,
  "▁Ko": 2739,
  "ified": 2740,
  "▁funds": 2741,
  "▁approximately": 2742,
  "▁caused": 2743,
  "大约": 2744,
  "SC": 2745,
  "▁Har": 2746,
  "▁church": 2747,
  "▁Services": 2748,
  "宗教": 2749,
  "▁Kingdom": 2750,
  "轮": 2751,
  "决议草案": 2752,
  "供": 2753,
  "表明": 2754,
  "par": 2755,
  "价值": 2756,
  "ever": 2757,
  "一份": 2758,
  "▁consider": 2759,
  "▁dollars": 2760,
  "包": 2761,
  "内部": 2762,
  "ction": 2763,
  "▁prepared": 2764,
  "▁entitled": 2765,
  "▁file": 2766,
  "▁–": 2767,
  "▁contains": 2768,
  "▁fast": 2769,
  "综合": 2770,
  "▁Ya": 2771,
  "▁Education": 2772,
  "▁从": 2773,
  "▁interests": 2774,
  "▁paid": 2775,
  "▁ways": 2776,
  "▁mean": 2777,
  "▁conference": 2778,
  "▁employees": 2779,
  "质": 2780,
  "▁Hu": 2781,
  "▁doing": 2782,
  "bit": 2783,
  "▁Sha": 2784,
  "▁act": 2785,
  "作用": 2786,
  "接": 2787,
  "ier": 2788,
  "▁EUR": 2789,
  "▁success": 2790,
  "▁heat": 2791,
  "▁collection": 2792,
  "而不是": 2793,
  "注意": 2794,
  "▁sound": 2795,
  "▁theory": 2796,
  "伊拉克": 2797,
  "计算": 2798,
  "▁sun": 2799,
  "的主要": 2800,
  "▁River": 2801,
  "▁violence": 2802,
  "的国家": 2803,
  "▁conducted": 2804,
  "创建": 2805,
  ">": 2806,
  "收": 2807,
  "▁instead": 2808,
  "ari": 2809,
  "▁例如": 2810,
  "her": 2811,
  "▁leave": 2812,
  "界": 2813,
  "举行的": 2814,
  "出现": 2815,
  "理": 2816,
  "▁opened": 2817,
  "红": 2818,
  "音": 2819,
  "level": 2820,
  "改善": 2821,
  "福": 2822,
  "禁止": 2823,
  "▁Ukrainian": 2824,
  "▁Ca": 2825,
  "损失": 2826,
  "▁news": 2827,
  "▁places": 2828,
  "的方式": 2829,
  "主义": 2830,
  "▁try": 2831,
  "▁skin": 2832,
  "▁job": 2833,
  "▁fear": 2834,
  "▁vehicle": 2835,
  "司法": 2836,
  "持续": 2837,
  "LE": 2838,
  "▁Also": 2839,
  "▁length": 2840,
  "压": 2841,
  "▁forward": 2842,
  "▁Business": 2843,
  "模型": 2844,
  "它的": 2845,
  "▁Pi": 2846,
  "▁step": 2847,
  "ile": 2848,
  "▁families": 2849,
  "▁Anti": 2850,
  "ens": 2851,
  "▁sites": 2852,
  "▁experts": 2853,
  "▁rule": 2854,
  "研究所": 2855,
  "▁tons": 2856,
  "▁actions": 2857,
  "▁daily": 2858,
  "ker": 2859,
  "▁Under": 2860,
  "▁normal": 2861,
  "仍": 2862,
  "每年": 2863,
  "▁steel": 2864,
  "▁Dis": 2865,
  "▁rates": 2866,
  "Mo": 2867,
  "pi": 2868,
  "▁scientists": 2869,
  "▁laws": 2870,
  "▁growing": 2871,
  "联邦": 2872,
  "操作": 2873,
  "工作人员": 2874,
  "▁powerful": 2875,
  "申请": 2876,
  "ken": 2877,
  "风险": 2878,
  "▁Australia": 2879,
  "▁criminal": 2880,
  "▁earlier": 2881,
  "▁infrastructure": 2882,
  "保证": 2883,
  "张": 2884,
  "▁successful": 2885,
  "▁strategy": 2886,
  "推": 2887,
  "▁Red": 2888,
  "IS": 2889,
  "保": 2890,
  "ets": 2891,
  "▁release": 2892,
  "▁match": 2893,
  "▁launched": 2894,
  "ST": 2895,
  "▁Web": 2896,
  "▁regard": 2897,
  "▁simply": 2898,
  "tar": 2899,
  "cy": 2900,
  "▁condition": 2901,
  "bra": 2902,
  "属于": 2903,
  "house": 2904,
  "▁Jesus": 2905,
  "展": 2906,
  "仅": 2907,
  "血": 2908,
  "ING": 2909,
  "▁style": 2910,
  "ane": 2911,
  "照": 2912,
  "防": 2913,
  "百": 2914,
  "ight": 2915,
  "疾病": 2916,
  "巴西": 2917,
  "▁buy": 2918,
  "▁opportunity": 2919,
  "▁participants": 2920,
  "食品": 2921,
  "博士": 2922,
  "▁internal": 2923,
  "分钟": 2924,
  "▁mis": 2925,
  "▁advanced": 2926,
  "几": 2927,
  "俄": 2928,
  "▁monitoring": 2929,
  "▁Road": 2930,
  "至少": 2931,
  "ach": 2932,
  "作出": 2933,
  "lic": 2934,
  "眼": 2935,
  "所以": 2936,
  "云": 2937,
  "van": 2938,
  "在线": 2939,
  "▁customer": 2940,
  "▁link": 2941,
  "教授": 2942,
  "▁Science": 2943,
  "▁UK": 2944,
  "▁programs": 2945,
  "计算机": 2946,
  "ath": 2947,
  "▁variety": 2948,
  "协定": 2949,
  "▁centre": 2950,
  "res": 2951,
  "▁radio": 2952,
  "▁electronic": 2953,
  "基本": 2954,
  "▁Vi": 2955,
  "可能会": 2956,
  "kh": 2957,
  "注": 2958,
  "▁conflict": 2959,
  "的影响": 2960,
  "▁leaders": 2961,
  "清": 2962,
  "证明": 2963,
  "▁policies": 2964,
  "正式": 2965,
  "▁deep": 2966,
  "ably": 2967,
  "党": 2968,
  "gan": 2969,
  "▁consideration": 2970,
  "iya": 2971,
  "▁Free": 2972,
  "问": 2973,
  "▁climate": 2974,
  "▁learning": 2975,
  "▁Ben": 2976,
  "▁multiple": 2977,
  "常": 2978,
  "令人": 2979,
  "版本": 2980,
  "▁nor": 2981,
  "▁moment": 2982,
  "▁completely": 2983,
  "飞机": 2984,
  "▁Executive": 2985,
  "▁signed": 2986,
  "▁sold": 2987,
  "▁Street": 2988,
  "▁models": 2989,
  "最大的": 2990,
  "▁du": 2991,
  "▁plants": 2992,
  "▁send": 2993,
  "▁Ku": 2994,
  "▁latest": 2995,
  "公民": 2996,
  "▁Although": 2997,
  "▁£": 2998,
  "▁Te": 2999,
  "ep": 3000,
  "根": 3001,
  "民主": 3002,
  "▁components": 3003,
  "▁location": 3004,
  "▁Power": 3005,
  "ey": 3006,
  "light": 3007,
  "ski": 3008,
  "▁Ge": 3009,
  "▁Greek": 3010,
  "更新": 3011,
  "边": 3012,
  "▁distance": 3013,
  "▁participation": 3014,
  "▁object": 3015,
  "一家": 3016,
  "原则": 3017,
  "▁sale": 3018,
  "▁anything": 3019,
  "▁有限": 3020,
  "检查": 3021,
  "武器": 3022,
  "▁chemical": 3023,
  "类型": 3024,
  "条约": 3025,
  "INF": 3026,
  "▁Val": 3027,
  "Ma": 3028,
  "▁im": 3029,
  "don": 3030,
  "▁drive": 3031,
  "UN": 3032,
  "▁weapons": 3033,
  "UNEP": 3034,
  "ini": 3035,
  "▁concept": 3036,
  "以来": 3037,
  "班": 3038,
  "落": 3039,
  "奖": 3040,
  "▁partners": 3041,
  "▁floor": 3042,
  "ER": 3043,
  "▁uses": 3044,
  "▁为了": 3045,
  "▁rise": 3046,
  "▁check": 3047,
  "罪": 3048,
  "▁completed": 3049,
  "切": 3050,
  "▁eyes": 3051,
  "ins": 3052,
  "准备": 3053,
  "犯罪": 3054,
  "▁flow": 3055,
  "ara": 3056,
  "精": 3057,
  "▁photo": 3058,
  "登": 3059,
  "满足": 3060,
  "▁hands": 3061,
  "ec": 3062,
  "He": 3063,
  "医疗": 3064,
  "▁mid": 3065,
  "发言": 3066,
  "尽管": 3067,
  "ery": 3068,
  "威": 3069,
  "▁meaning": 3070,
  "▁benefit": 3071,
  "▁student": 3072,
  "责任": 3073,
  "▁wrote": 3074,
  "board": 3075,
  "▁Paris": 3076,
  "▁credit": 3077,
  "▁serious": 3078,
  "▁remains": 3079,
  "ms": 3080,
  "资金": 3081,
  "long": 3082,
  "▁markets": 3083,
  "▁formed": 3084,
  "客": 3085,
  "▁accept": 3086,
  "▁worth": 3087,
  "的一部分": 3088,
  "这样的": 3089,
  "增": 3090,
  "解": 3091,
  "担任": 3092,
  "安全理事会": 3093,
  "部队": 3094,
  "创造": 3095,
  "战争": 3096,
  "高级": 3097,
  "▁followed": 3098,
  "▁combination": 3099,
  "安装": 3100,
  "墨西哥": 3101,
  "预": 3102,
  "▁parents": 3103,
  "▁weeks": 3104,
  "▁Professor": 3105,
  "有关的": 3106,
  "▁functions": 3107,
  "ye": 3108,
  "▁double": 3109,
  "沃": 3110,
  "国内": 3111,
  "from": 3112,
  "▁Chairman": 3113,
  "ians": 3114,
  "泰": 3115,
  "▁founded": 3116,
  "▁deal": 3117,
  "成本": 3118,
  "▁Chi": 3119,
  "▁character": 3120,
  "▁establishment": 3121,
  "著": 3122,
  "▁press": 3123,
  "▁primary": 3124,
  "ju": 3125,
  "有一个": 3126,
  "▁presence": 3127,
  "▁Post": 3128,
  "▁maintenance": 3129,
  "▁meetings": 3130,
  "%。": 3131,
  "除": 3132,
  "通信": 3133,
  "WP": 3134,
  "发布": 3135,
  "▁achieve": 3136,
  "艾": 3137,
  "倍": 3138,
  "▁TO": 3139,
  "一切": 3140,
  "▁storage": 3141,
  "店": 3142,
  "苏": 3143,
  "龙": 3144,
  "▁Pe": 3145,
  "tal": 3146,
  "▁Trans": 3147,
  "亚洲": 3148,
  "ray": 3149,
  "ita": 3150,
  "nt": 3151,
  "源": 3152,
  "▁hair": 3153,
  "▁Tri": 3154,
  "▁prior": 3155,
  "送": 3156,
  "king": 3157,
  "条款": 3158,
  "▁addressed": 3159,
  "▁command": 3160,
  "▁separate": 3161,
  "具体": 3162,
  "▁summer": 3163,
  "恢复": 3164,
  "形式": 3165,
  "短": 3166,
  "\")": 3167,
  "side": 3168,
  "▁administration": 3169,
  "sion": 3170,
  "|": 3171,
  "pl": 3172,
  "建": 3173,
  "▁Public": 3174,
  "▁Ti": 3175,
  "▁coming": 3176,
  "▁positive": 3177,
  "▁planning": 3178,
  "▁choose": 3179,
  "▁safe": 3180,
  "▁chief": 3181,
  "▁quickly": 3182,
  "司": 3183,
  "▁damage": 3184,
  "▁Head": 3185,
  "造成": 3186,
  "修": 3187,
  "▁goal": 3188,
  "▁citizens": 3189,
  "酒": 3190,
  "▁didn": 3191,
  "▁easily": 3192,
  "土耳其": 3193,
  "▁hot": 3194,
  "▁hold": 3195,
  "▁animals": 3196,
  "过程": 3197,
  "nu": 3198,
  "▁benefits": 3199,
  "便": 3200,
  "▁freedom": 3201,
  "警察": 3202,
  "ings": 3203,
  "ants": 3204,
  "比如": 3205,
  "▁turned": 3206,
  "土地": 3207,
  "▁cut": 3208,
  "ph": 3209,
  "▁Mission": 3210,
  "▁agree": 3211,
  "▁wind": 3212,
  "非政府组织": 3213,
  "阶段": 3214,
  "▁discovered": 3215,
  "▁Yu": 3216,
  "▁reduction": 3217,
  "监测": 3218,
  "雅": 3219,
  "▁engine": 3220,
  "离": 3221,
  "ius": 3222,
  "!\"": 3223,
  "海洋": 3224,
  "▁cover": 3225,
  "▁degree": 3226,
  "dia": 3227,
  "▁generation": 3228,
  "所有的": 3229,
  "▁mainly": 3230,
  "致": 3231,
  "快": 3232,
  "传统": 3233,
  "了一个": 3234,
  "▁Two": 3235,
  "因素": 3236,
  "▁Today": 3237,
  "ii": 3238,
  "▁applied": 3239,
  "死亡": 3240,
  "▁probably": 3241,
  "▁Italian": 3242,
  "如此": 3243,
  "戈": 3244,
  "eg": 3245,
  "tel": 3246,
  "三个": 3247,
  "其中包括": 3248,
  "ng": 3249,
  "解释": 3250,
  "▁green": 3251,
  "ks": 3252,
  "▁Bi": 3253,
  "▁debt": 3254,
  "vin": 3255,
  "▁Many": 3256,
  "▁agreed": 3257,
  "▁requested": 3258,
  "An": 3259,
  "▁sexual": 3260,
  "将在": 3261,
  "▁street": 3262,
  "ura": 3263,
  "san": 3264,
  "日在": 3265,
  "RES": 3266,
  "▁scale": 3267,
  "▁x": 3268,
  "you": 3269,
  "▁Sun": 3270,
  "▁item": 3271,
  "问题的": 3272,
  "兹": 3273,
  "▁Wi": 3274,
  "声明": 3275,
  "▁volume": 3276,
  "为了": 3277,
  "▁organized": 3278,
  "▁historical": 3279,
  "系": 3280,
  "▁buildings": 3281,
  "ric": 3282,
  "▁allowed": 3283,
  "叫": 3284,
  "▁charge": 3285,
  "求": 3286,
  "’": 3287,
  "应用程序": 3288,
  "▁brand": 3289,
  "▁PS": 3290,
  "抗": 3291,
  "La": 3292,
  "杜": 3293,
  "统计": 3294,
  "测量": 3295,
  "若": 3296,
  "▁context": 3297,
  "▁creating": 3298,
  "mir": 3299,
  "▁enter": 3300,
  "▁sign": 3301,
  "▁当": 3302,
  "hi": 3303,
  "amp": 3304,
  "荷兰": 3305,
  "▁personnel": 3306,
  "▁reference": 3307,
  "亿美元": 3308,
  "af": 3309,
  "未来": 3310,
  "▁provisions": 3311,
  "▁increasing": 3312,
  "▁books": 3313,
  "▁Federal": 3314,
  "Co": 3315,
  "▁remain": 3316,
  "改革": 3317,
  "▁games": 3318,
  "▁provision": 3319,
  "▁perform": 3320,
  "▁payment": 3321,
  "SP": 3322,
  "八": 3323,
  "▁recommendations": 3324,
  "鱼": 3325,
  "▁Please": 3326,
  "ff": 3327,
  "dar": 3328,
  "▁properties": 3329,
  "升": 3330,
  "谁": 3331,
  "▁metal": 3332,
  "干": 3333,
  "▁army": 3334,
  "For": 3335,
  "▁regarding": 3336,
  "▁distribution": 3337,
  "AM": 3338,
  "Con": 3339,
  "▁酒店": 3340,
  "▁beyond": 3341,
  "▁partner": 3342,
  "TS": 3343,
  "卫生": 3344,
  "low": 3345,
  "选举": 3346,
  "▁Vo": 3347,
  "是由": 3348,
  "▁stated": 3349,
  "▁lines": 3350,
  "应当": 3351,
  "▁behalf": 3352,
  "▁maximum": 3353,
  "RA": 3354,
  "出口": 3355,
  "kov": 3356,
  "▁require": 3357,
  "的情况": 3358,
  "ovich": 3359,
  "▁assessment": 3360,
  "▁truth": 3361,
  "地球": 3362,
  "▁direction": 3363,
  "▁hope": 3364,
  "价": 3365,
  "▁alone": 3366,
  "sta": 3367,
  "攻击": 3368,
  "▁reduced": 3369,
  "hy": 3370,
  "its": 3371,
  "▁Black": 3372,
  "安排": 3373,
  "部长": 3374,
  "▁Com": 3375,
  "▁numbers": 3376,
  "▁counter": 3377,
  "▁Over": 3378,
  "很多": 3379,
  "▁Hi": 3380,
  "资产": 3381,
  "▁quarter": 3382,
  "▁Don": 3383,
  "移民": 3384,
  "ition": 3385,
  "▁choice": 3386,
  "oma": 3387,
  "冲突": 3388,
  "▁Site": 3389,
  "孩子": 3390,
  "▁testing": 3391,
  "▁equal": 3392,
  "▁overall": 3393,
  "▁gender": 3394,
  "吃": 3395,
  "▁department": 3396,
  "免费": 3397,
  "▁showed": 3398,
  "运": 3399,
  "type": 3400,
  "▁Energy": 3401,
  "▁everyone": 3402,
  "各国": 3403,
  "▁Even": 3404,
  "收集": 3405,
  "并不": 3406,
  "适用于": 3407,
  "平均": 3408,
  "▁enjoy": 3409,
  "称为": 3410,
  "▁Mon": 3411,
  "▁combined": 3412,
  "ib": 3413,
  "▁importance": 3414,
  "▁Agreement": 3415,
  "▁agenda": 3416,
  "▁poor": 3417,
  "▁Ch": 3418,
  "官": 3419,
  "药物": 3420,
  "▁Turkey": 3421,
  "▁external": 3422,
  "▁conduct": 3423,
  "批准": 3424,
  "▁通过": 3425,
  "院": 3426,
  "严重": 3427,
  "最后": 3428,
  "▁Kar": 3429,
  "▁heard": 3430,
  "大多数": 3431,
  "PA": 3432,
  "▁previously": 3433,
  "青年": 3434,
  "没": 3435,
  "Le": 3436,
  "制作": 3437,
  "▁tool": 3438,
  "▁David": 3439,
  "▁claim": 3440,
  "sy": 3441,
  "non": 3442,
  "▁Ba": 3443,
  "▁Foundation": 3444,
  "通过了": 3445,
  "▁Iraq": 3446,
  "充分": 3447,
  "▁See": 3448,
  "▁friend": 3449,
  "▁train": 3450,
  "▁memory": 3451,
  "▁drugs": 3452,
  "▁items": 3453,
  "▁doesn": 3454,
  "SE": 3455,
  "▁Spain": 3456,
  "▁middle": 3457,
  "▁wanted": 3458,
  "called": 3459,
  "▁factors": 3460,
  "▁Hong": 3461,
  "▁Water": 3462,
  "▁registered": 3463,
  "▁st": 3464,
  "的信息": 3465,
  "tain": 3466,
  "▁fight": 3467,
  "周": 3468,
  "欢迎": 3469,
  "▁auto": 3470,
  "思": 3471,
  "▁river": 3472,
  "▁electric": 3473,
  "埃及": 3474,
  ",”": 3475,
  "▁Thus": 3476,
  "▁fall": 3477,
  "保留": 3478,
  "ica": 3479,
  "年代": 3480,
  "理解": 3481,
  "不可": 3482,
  "积极": 3483,
  "tur": 3484,
  "back": 3485,
  "过去": 3486,
  "▁apply": 3487,
  "挑战": 3488,
  "class": 3489,
  "No": 3490,
  "▁ask": 3491,
  "▁screen": 3492,
  "机械": 3493,
  "现代": 3494,
  "附件": 3495,
  "目": 3496,
  "端": 3497,
  "▁path": 3498,
  "素": 3499,
  "SA": 3500,
  "▁generally": 3501,
  "ID": 3502,
  "动物": 3503,
  "PS": 3504,
  "连": 3505,
  "▁efficiency": 3506,
  "ick": 3507,
  "副": 3508,
  "往": 3509,
  "减": 3510,
  "当时": 3511,
  "斯特": 3512,
  "▁avoid": 3513,
  "更加": 3514,
  "票": 3515,
  "▁fine": 3516,
  "des": 3517,
  "▁names": 3518,
  "具": 3519,
  "▁Che": 3520,
  "字": 3521,
  "▁huge": 3522,
  "▁Sam": 3523,
  "额": 3524,
  "欧": 3525,
  "七": 3526,
  "取得": 3527,
  "▁acid": 3528,
  "▁recommended": 3529,
  "▁Part": 3530,
  "▁Total": 3531,
  "MA": 3532,
  "war": 3533,
  "长期": 3534,
  "某些": 3535,
  "不要": 3536,
  "▁career": 3537,
  "▁immediately": 3538,
  "载": 3539,
  "DS": 3540,
  "aw": 3541,
  "▁carry": 3542,
  "▁morning": 3543,
  "协助": 3544,
  "▁trying": 3545,
  "▁consumption": 3546,
  "评论": 3547,
  "较": 3548,
  "▁manufacturing": 3549,
  "直到": 3550,
  "ip": 3551,
  "经验": 3552,
  "mit": 3553,
  "▁majority": 3554,
  "造": 3555,
  "营": 3556,
  "状态": 3557,
  "isation": 3558,
  "▁Jewish": 3559,
  "▁armed": 3560,
  "令": 3561,
  "▁strategic": 3562,
  "领导": 3563,
  "▁Mu": 3564,
  "▁Parties": 3565,
  "▁dead": 3566,
  "IR": 3567,
  "▁k": 3568,
  "▁secret": 3569,
  "▁Paul": 3570,
  "▁comprehensive": 3571,
  "▁initial": 3572,
  "施": 3573,
  "现": 3574,
  "▁ready": 3575,
  "酸": 3576,
  "Ha": 3577,
  "▁Here": 3578,
  "▁referred": 3579,
  "知识": 3580,
  "▁values": 3581,
  "查": 3582,
  "▁Shi": 3583,
  "tle": 3584,
  "▁writing": 3585,
  "的地方": 3586,
  "代表团": 3587,
  "val": 3588,
  "▁lived": 3589,
  "oy": 3590,
  "▁master": 3591,
  "eh": 3592,
  "has": 3593,
  "yo": 3594,
  "另一个": 3595,
  "互联网": 3596,
  "结": 3597,
  "TA": 3598,
  "▁battle": 3599,
  "经过": 3600,
  "OR": 3601,
  "英语": 3602,
  "经常": 3603,
  "进程": 3604,
  "▁principles": 3605,
  "▁solar": 3606,
  "旅游": 3607,
  "ose": 3608,
  "▁played": 3609,
  "▁maintain": 3610,
  "▁app": 3611,
  "▁details": 3612,
  "▁ideal": 3613,
  "▁strength": 3614,
  "▁passed": 3615,
  "cher": 3616,
  "▁claims": 3617,
  "ska": 3618,
  "mal": 3619,
  "希腊": 3620,
  "几乎": 3621,
  "cal": 3622,
  "传": 3623,
  "读": 3624,
  "well": 3625,
  "lar": 3626,
  "uri": 3627,
  "len": 3628,
  "▁Academy": 3629,
  "RS": 3630,
  "▁assets": 3631,
  "▁bit": 3632,
  "▁figure": 3633,
  "▁export": 3634,
  "▁card": 3635,
  "▁diseases": 3636,
  "qu": 3637,
  "变化": 3638,
  "▁objects": 3639,
  "PV": 3640,
  "ious": 3641,
  "▁rooms": 3642,
  "承认": 3643,
  "▁skills": 3644,
  "▁Middle": 3645,
  "货": 3646,
  "▁performed": 3647,
  "ola": 3648,
  "反对": 3649,
  "专门": 3650,
  "税": 3651,
  "私人": 3652,
  "▁由于": 3653,
  "▁bad": 3654,
  "▁spent": 3655,
  "▁officials": 3656,
  "是一种": 3657,
  "▁campaign": 3658,
  "的权利": 3659,
  "fin": 3660,
  "族": 3661,
  "oo": 3662,
  "Fi": 3663,
  "▁supported": 3664,
  "▁walk": 3665,
  "▁thousands": 3666,
  "电话": 3667,
  "感到": 3668,
  "▁eye": 3669,
  "era": 3670,
  "tri": 3671,
  "上述": 3672,
  "ug": 3673,
  "纽约": 3674,
  "股": 3675,
  "ward": 3676,
  "~": 3677,
  "▁rich": 3678,
  "▁break": 3679,
  "机会": 3680,
  "▁female": 3681,
  "ero": 3682,
  "ama": 3683,
  "▁Ab": 3684,
  "ding": 3685,
  "药": 3686,
  "▁talk": 3687,
  "▁perfect": 3688,
  "RO": 3689,
  "▁Cha": 3690,
  "GA": 3691,
  "▁Next": 3692,
  "▁USD": 3693,
  "▁moved": 3694,
  "▁Alexander": 3695,
  "呢": 3696,
  "▁educational": 3697,
  "▁identified": 3698,
  "▁competition": 3699,
  "▁Deputy": 3700,
  "假": 3701,
  "ich": 3702,
  "这里": 3703,
  "▁served": 3704,
  "乐": 3705,
  "群": 3706,
  "ris": 3707,
  "目的": 3708,
  "▁delivery": 3709,
  "ky": 3710,
  "▁Christian": 3711,
  "▁integrated": 3712,
  "GC": 3713,
  "检测": 3714,
  "瑞典": 3715,
  "To": 3716,
  "必": 3717,
  "公司的": 3718,
  "不断": 3719,
  "▁hour": 3720,
  "法庭": 3721,
  "的情况下": 3722,
  "rat": 3723,
  "公寓": 3724,
  "▁Bu": 3725,
  "相关的": 3726,
  "ene": 3727,
  "▁waste": 3728,
  "▁reality": 3729,
  "▁authority": 3730,
  "物质": 3731,
  "扩大": 3732,
  "Me": 3733,
  "顿": 3734,
  "套": 3735,
  "佩": 3736,
  "▁opening": 3737,
  "失": 3738,
  "温": 3739,
  "ai": 3740,
  "xi": 3741,
  "AR": 3742,
  "▁flight": 3743,
  "▁extra": 3744,
  "▁voice": 3745,
  "推动": 3746,
  "ala": 3747,
  "强调": 3748,
  "▁origin": 3749,
  "全面": 3750,
  "▁se": 3751,
  "他在": 3752,
  "降低": 3753,
  "▁title": 3754,
  "▁server": 3755,
  "mark": 3756,
  "▁Egypt": 3757,
  "▁someone": 3758,
  "大型": 3759,
  "▁exhibition": 3760,
  "▁procedure": 3761,
  "更多的": 3762,
  "朋友": 3763,
  "一年": 3764,
  "请求": 3765,
  "欧盟": 3766,
  "儿": 3767,
  "▁Ru": 3768,
  "茨": 3769,
  "▁add": 3770,
  "St": 3771,
  "》,": 3772,
  "▁Kong": 3773,
  "ix": 3774,
  "▁Another": 3775,
  "▁fi": 3776,
  "AS": 3777,
  "耶": 3778,
  "py": 3779,
  "▁save": 3780,
  "科技": 3781,
  "▁Port": 3782,
  "tes": 3783,
  "AT": 3784,
  "标": 3785,
  "▁stand": 3786,
  "▁output": 3787,
  "kar": 3788,
  "▁connected": 3789,
  "▁miles": 3790,
  "wan": 3791,
  "▁purchase": 3792,
  "智能": 3793,
  "▁communities": 3794,
  "▁cash": 3795,
  "▁target": 3796,
  "▁options": 3797,
  "状况": 3798,
  "▁wall": 3799,
  "▁phase": 3800,
  "▁expect": 3801,
  "吧": 3802,
  "菲": 3803,
  "游": 3804,
  "非法": 3805,
  "草": 3806,
  "▁core": 3807,
  "form": 3808,
  "似乎": 3809,
  "机场": 3810,
  "下列": 3811,
  "tz": 3812,
  "▁seems": 3813,
  "程": 3814,
  "特派团": 3815,
  "直": 3816,
  "ging": 3817,
  "▁Army": 3818,
  "ada": 3819,
  "▁ideas": 3820,
  "SD": 3821,
  "▁Saint": 3822,
  "▁Agency": 3823,
  "even": 3824,
  "▁pain": 3825,
  "▁agencies": 3826,
  "CI": 3827,
  "▁decisions": 3828,
  "修改": 3829,
  "ates": 3830,
  "办事处": 3831,
  "▁sports": 3832,
  "dan": 3833,
  "住": 3834,
  "提供的": 3835,
  "▁display": 3836,
  "▁sustainable": 3837,
  "数据库": 3838,
  "▁opportunities": 3839,
  "证": 3840,
  "▁launch": 3841,
  "▁getting": 3842,
  "年度": 3843,
  "消除": 3844,
  "she": 3845,
  "▁clean": 3846,
  "▁Data": 3847,
  "分子": 3848,
  "▁respectively": 3849,
  "ay": 3850,
  "rin": 3851,
  "▁traffic": 3852,
  "立法": 3853,
  "杰": 3854,
  "vers": 3855,
  "▁changed": 3856,
  "▁practices": 3857,
  "建设": 3858,
  "work": 3859,
  "▁Policy": 3860,
  "▁animal": 3861,
  "▁gives": 3862,
  "▁chance": 3863,
  "玛": 3864,
  "▁images": 3865,
  "▁expressed": 3866,
  "bin": 3867,
  "▁cars": 3868,
  "程度": 3869,
  "差": 3870,
  "RC": 3871,
  "RE": 3872,
  "▁spiritual": 3873,
  "▁carbon": 3874,
  "▁stock": 3875,
  "ient": 3876,
  "▁他们": 3877,
  "扎": 3878,
  "▁nine": 3879,
  "▁statistics": 3880,
  "▁saying": 3881,
  "▁Add": 3882,
  "该公司": 3883,
  "▁instance": 3884,
  "想要": 3885,
  "AD": 3886,
  "控": 3887,
  "kg": 3888,
  "今天": 3889,
  "ob": 3890,
  "▁Force": 3891,
  "▁determine": 3892,
  "ries": 3893,
  "▁mentioned": 3894,
  "SI": 3895,
  "law": 3896,
  "▁Beijing": 3897,
  "阿尔": 3898,
  "Ta": 3899,
  "歧视": 3900,
  "▁feet": 3901,
  "这项": 3902,
  "蒙": 3903,
  "▁et": 3904,
  "This": 3905,
  "MO": 3906,
  "▁appear": 3907,
  "▁heavy": 3908,
  "服务器": 3909,
  "lon": 3910,
  "▁Asian": 3911,
  "▁firm": 3912,
  "适用": 3913,
  "词": 3914,
  "航空": 3915,
  "▁wish": 3916,
  "跟": 3917,
  "▁placed": 3918,
  "排": 3919,
  "性能": 3920,
  "▁Islamic": 3921,
  "▁begin": 3922,
  "▁Year": 3923,
  "ites": 3924,
  "认证": 3925,
  "IA": 3926,
  "▁enterprises": 3927,
  "ule": 3928,
  "树": 3929,
  "cent": 3930,
  "pp": 3931,
  "工人": 3932,
  "az": 3933,
  "ves": 3934,
  "▁principle": 3935,
  "▁Ros": 3936,
  "▁Plan": 3937,
  "▁purposes": 3938,
  "▁Ve": 3939,
  "▁administrative": 3940,
  "▁wine": 3941,
  "▁comp": 3942,
  "PP": 3943,
  "性别": 3944,
  "▁critical": 3945,
  "不仅": 3946,
  "eth": 3947,
  "凯": 3948,
  "▁Permanent": 3949,
  "规划": 3950,
  "gg": 3951,
  "虽然": 3952,
  "ther": 3953,
  "MP": 3954,
  "▁offered": 3955,
  "▁Action": 3956,
  "▁larger": 3957,
  "开放": 3958,
  "什": 3959,
  "▁fields": 3960,
  "▁Society": 3961,
  "厂": 3962,
  "▁Lake": 3963,
  "▁girl": 3964,
  "berg": 3965,
  "▁prison": 3966,
  "▁hundred": 3967,
  "▁wood": 3968,
  "▁daughter": 3969,
  "料": 3970,
  "°": 3971,
  "▁Mor": 3972,
  "鼓励": 3973,
  "▁Why": 3974,
  "▁feature": 3975,
  "▁email": 3976,
  "设置": 3977,
  "尤其是": 3978,
  "ser": 3979,
  "起来": 3980,
  "为什么": 3981,
  "森林": 3982,
  "▁Second": 3983,
  "▁park": 3984,
  "温度": 3985,
  "▁Azerbaijan": 3986,
  "▁blue": 3987,
  "的时间": 3988,
  "瑞": 3989,
  "#": 3990,
  "职": 3991,
  "承诺": 3992,
  "别": 3993,
  "shi": 3994,
  "▁patient": 3995,
  "▁running": 3996,
  "▁task": 3997,
  "▁中国": 3998,
  "大量": 3999,
  "早": 4000,
  "▁虽然": 4001,
  "▁formation": 4002,
  "ili": 4003,
  "▁exercise": 4004,
  "tech": 4005,
  "▁nation": 4006,
  "▁glass": 4007,
  "师": 4008,
  "▁becomes": 4009,
  "▁plastic": 4010,
  "广告": 4011,
  "▁insurance": 4012,
  "▁Mexico": 4013,
  "象": 4014,
  "DI": 4015,
  "食": 4016,
  "▁urban": 4017,
  "fu": 4018,
  "居": 4019,
  "ano": 4020,
  "▁Well": 4021,
  "康": 4022,
  "▁Men": 4023,
  "第一次": 4024,
  "rate": 4025,
  "▁negative": 4026,
  "▁gross": 4027,
  "Be": 4028,
  "几个": 4029,
  "▁expert": 4030,
  "rich": 4031,
  "主题": 4032,
  "ram": 4033,
  "▁race": 4034,
  "竞争": 4035,
  "弗": 4036,
  "style": 4037,
  "实际": 4038,
  "ei": 4039,
  "▁intended": 4040,
  "的任何": 4041,
  "然": 4042,
  "▁tri": 4043,
  "▁domain": 4044,
  "描述": 4045,
  "▁White": 4046,
  "serv": 4047,
  "COP": 4048,
  "到了": 4049,
  "ese": 4050,
  "▁Israeli": 4051,
  "防止": 4052,
  "▁artist": 4053,
  "▁motor": 4054,
  "香港": 4055,
  "授权": 4056,
  "uring": 4057,
  "▁pass": 4058,
  "▁professor": 4059,
  "▁engineering": 4060,
  "▁Division": 4061,
  "▁interesting": 4062,
  "▁reasons": 4063,
  "`": 4064,
  "▁girls": 4065,
  "▁crisis": 4066,
  "飞": 4067,
  "dom": 4068,
  "错误": 4069,
  "▁sort": 4070,
  "las": 4071,
  "旅行": 4072,
  "▁Ga": 4073,
  "pan": 4074,
  "指导": 4075,
  "整": 4076,
  "原因": 4077,
  "财务": 4078,
  "牌": 4079,
  "▁contain": 4080,
  "关键": 4081,
  "▁posts": 4082,
  "存储": 4083,
  "比较": 4084,
  "CS": 4085,
  "▁Latin": 4086,
  "▁anyone": 4087,
  "▁appeared": 4088,
  "Bo": 4089,
  "▁Peter": 4090,
  "命令": 4091,
  "金属": 4092,
  "rov": 4093,
  "▁requires": 4094,
  "▁responsibility": 4095,
  "air": 4096,
  "right": 4097,
  "Ro": 4098,
  "计": 4099,
  "oon": 4100,
  "▁door": 4101,
  "Ra": 4102,
  "效率": 4103,
  "数量": 4104,
  "TH": 4105,
  "▁dark": 4106,
  "▁actual": 4107,
  "eb": 4108,
  "▁male": 4109,
  "CT": 4110,
  "▁Open": 4111,
  "EM": 4112,
  "ple": 4113,
  "咨询": 4114,
  "such": 4115,
  "步": 4116,
  "vis": 4117,
  "some": 4118,
  "▁except": 4119,
  "▁remember": 4120,
  "卷": 4121,
  "就像": 4122,
  "ef": 4123,
  "▁mountain": 4124,
  "医生": 4125,
  "▁planet": 4126,
  "例": 4127,
  "▁worldwide": 4128,
  "兼": 4129,
  "ds": 4130,
  "实验室": 4131,
  "▁procedures": 4132,
  "威胁": 4133,
  "▁officers": 4134,
  "▁Pan": 4135,
  "▁Spanish": 4136,
  "速度": 4137,
  "▁else": 4138,
  "暴力": 4139,
  "building": 4140,
  "▁cold": 4141,
  "field": 4142,
  "▁mental": 4143,
  "▁Sal": 4144,
  "相信": 4145,
  "AI": 4146,
  "cer": 4147,
  "基因": 4148,
  "▁Han": 4149,
  "▁answer": 4150,
  "▁Super": 4151,
  "地位": 4152,
  "▁languages": 4153,
  "职业": 4154,
  "村": 4155,
  "而言": 4156,
  "位置": 4157,
  "份": 4158,
  "▁News": 4159,
  "▁banks": 4160,
  "ned": 4161,
  "▁annex": 4162,
  "九": 4163,
  "zy": 4164,
  "IF": 4165,
  "▁Every": 4166,
  "▁communications": 4167,
  "CA": 4168,
  "And": 4169,
  "bas": 4170,
  "▁Network": 4171,
  "▁interested": 4172,
  "果": 4173,
  "提交的": 4174,
  "▁Gen": 4175,
  "▁Support": 4176,
  "以上": 4177,
  "▁poly": 4178,
  "▁structures": 4179,
  "ake": 4180,
  "来源": 4181,
  "rn": 4182,
  "的数据": 4183,
  "sur": 4184,
  "▁fourth": 4185,
  "bl": 4186,
  "▁hit": 4187,
  "▁behavior": 4188,
  "▁numerous": 4189,
  "真主": 4190,
  "▁ma": 4191,
  "改进": 4192,
  "ros": 4193,
  "▁existence": 4194,
  "代码": 4195,
  "ware": 4196,
  "喜欢": 4197,
  "员工": 4198,
  "▁returned": 4199,
  "was": 4200,
  "▁Its": 4201,
  "▁port": 4202,
  "▁regime": 4203,
  "试验": 4204,
  "▁implement": 4205,
  "存": 4206,
  "dic": 4207,
  "进行的": 4208,
  "社": 4209,
  "▁serve": 4210,
  "▁networks": 4211,
  "din": 4212,
  "▁exist": 4213,
  "▁Star": 4214,
  "▁spread": 4215,
  "广泛": 4216,
  "place": 4217,
  "uc": 4218,
  "法官": 4219,
  "ade": 4220,
  "拿": 4221,
  "▁housing": 4222,
  "▁containing": 4223,
  "▁Island": 4224,
  "易": 4225,
  "▁height": 4226,
  "论": 4227,
  "lip": 4228,
  "▁survey": 4229,
  "known": 4230,
  "▁covered": 4231,
  "sco": 4232,
  "rum": 4233,
  "SS": 4234,
  "▁ratio": 4235,
  "▁difference": 4236,
  "▁dedicated": 4237,
  "▁enterprise": 4238,
  "作品": 4239,
  "基金会": 4240,
  "ella": 4241,
  "图像": 4242,
  "越": 4243,
  "▁visitors": 4244,
  "▁airport": 4245,
  "int": 4246,
  "精神": 4247,
  "▁Tra": 4248,
  "▁Fi": 4249,
  "var": 4250,
  "▁establish": 4251,
  "▁legislation": 4252,
  "▁USA": 4253,
  "改": 4254,
  "lor": 4255,
  "去年": 4256,
  "▁medium": 4257,
  "高度": 4258,
  "当局": 4259,
  "体验": 4260,
  "楼": 4261,
  "▁grow": 4262,
  "▁concerned": 4263,
  "少": 4264,
  "▁Forum": 4265,
  "IL": 4266,
  "再次": 4267,
  "scale": 4268,
  "▁Children": 4269,
  "预防": 4270,
  "ria": 4271,
  "▁Eastern": 4272,
  "▁brother": 4273,
  "ika": 4274,
  "的说明": 4275,
  "▁Land": 4276,
  "▁track": 4277,
  "Ex": 4278,
  "单位": 4279,
  "▁England": 4280,
  "more": 4281,
  "nan": 4282,
  "评价": 4283,
  "▁generate": 4284,
  "穆": 4285,
  "▁des": 4286,
  "乌": 4287,
  "▁她": 4288,
  "限": 4289,
  "▁essential": 4290,
  "挪威": 4291,
  "湖": 4292,
  "▁Regional": 4293,
  "▁minimum": 4294,
  "知": 4295,
  "▁pool": 4296,
  "▁perhaps": 4297,
  "nel": 4298,
  "NI": 4299,
  "特定": 4300,
  "调整": 4301,
  "修订": 4302,
  "其它": 4303,
  "▁Bio": 4304,
  "建造": 4305,
  "▁Google": 4306,
  "▁resistance": 4307,
  "▁funding": 4308,
  "介绍了": 4309,
  "成立": 4310,
  "ming": 4311,
  "投": 4312,
  "一致": 4313,
  "nic": 4314,
  "▁committed": 4315,
  "▁Mac": 4316,
  "MC": 4317,
  "▁Washington": 4318,
  "盖": 4319,
  "hal": 4320,
  "▁excellent": 4321,
  "table": 4322,
  "留": 4323,
  "▁Secretariat": 4324,
  "▁married": 4325,
  "OC": 4326,
  "▁Belarus": 4327,
  "▁signal": 4328,
  "und": 4329,
  "▁marketing": 4330,
  "ida": 4331,
  "mas": 4332,
  "满": 4333,
  "▁message": 4334,
  "TI": 4335,
  "▁win": 4336,
  "实": 4337,
  "ney": 4338,
  "收到": 4339,
  "bal": 4340,
  "▁bus": 4341,
  "▁Vol": 4342,
  "ami": 4343,
  "cru": 4344,
  "TC": 4345,
  "导": 4346,
  "基础设施": 4347,
  "试图": 4348,
  "eng": 4349,
  "nov": 4350,
  "▁尽管": 4351,
  "▁store": 4352,
  "▁Poland": 4353,
  "射": 4354,
  "以前": 4355,
  "▁troops": 4356,
  "的建议": 4357,
  "▁resulting": 4358,
  "毛": 4359,
  "▁Because": 4360,
  "最高": 4361,
  "植物": 4362,
  "▁Va": 4363,
  "富": 4364,
  "▁zone": 4365,
  "▁hospital": 4366,
  "民族": 4367,
  "▁pa": 4368,
  "▁Vladimir": 4369,
  "被称为": 4370,
  "▁closed": 4371,
  "▁Cor": 4372,
  "▁youth": 4373,
  "med": 4374,
  "▁Congress": 4375,
  "作者": 4376,
  "▁IP": 4377,
  "▁Britain": 4378,
  "▁believed": 4379,
  "cell": 4380,
  "卢": 4381,
  "▁n": 4382,
  "对话": 4383,
  "EB": 4384,
  "enko": 4385,
  "ox": 4386,
  "mb": 4387,
  "TE": 4388,
  "获": 4389,
  "化学": 4390,
  "▁aspects": 4391,
  "IN": 4392,
  "▁knew": 4393,
  "▁Who": 4394,
  "▁otherwise": 4395,
  "工厂": 4396,
  "▁您": 4397,
  "mail": 4398,
  "You": 4399,
  "土": 4400,
  "fra": 4401,
  "▁raised": 4402,
  "▁fund": 4403,
  "▁box": 4404,
  "交流": 4405,
  "夜": 4406,
  "中央": 4407,
  "▁trust": 4408,
  "宣言": 4409,
  "多个": 4410,
  "aries": 4411,
  "▁decrease": 4412,
  "yu": 4413,
  "▁Green": 4414,
  "财政": 4415,
  "配": 4416,
  "▁forest": 4417,
  "照片": 4418,
  "gro": 4419,
  "app": 4420,
  "宣传": 4421,
  "真": 4422,
  "报道": 4423,
  "▁correct": 4424,
  "重大": 4425,
  "的研究": 4426,
  "room": 4427,
  "▁apartment": 4428,
  "MD": 4429,
  "▁determined": 4430,
  "ville": 4431,
  "▁effort": 4432,
  "交通": 4433,
  "▁participate": 4434,
  "名为": 4435,
  "▁advantage": 4436,
  "分别": 4437,
  "▁Mer": 4438,
  "gram": 4439,
  "击": 4440,
  "▁据": 4441,
  "▁Protection": 4442,
  "▁follows": 4443,
  "钱": 4444,
  "监督": 4445,
  "▁Gar": 4446,
  "tr": 4447,
  "▁marriage": 4448,
  "▁sleep": 4449,
  "mann": 4450,
  "log": 4451,
  "医院": 4452,
  "▁players": 4453,
  "▁offering": 4454,
  "碳": 4455,
  "rap": 4456,
  "韦": 4457,
  "电池": 4458,
  "▁consists": 4459,
  "lat": 4460,
  "▁steps": 4461,
  "▁vote": 4462,
  "▁planned": 4463,
  "▁northern": 4464,
  "▁starting": 4465,
  "▁giving": 4466,
  "▁speak": 4467,
  "▁senior": 4468,
  "TO": 4469,
  "ties": 4470,
  "▁repair": 4471,
  "引": 4472,
  "▁semi": 4473,
  "从事": 4474,
  "▁relating": 4475,
  "▁About": 4476,
  "预测": 4477,
  "普通": 4478,
  "▁yourself": 4479,
  "sp": 4480,
  "▁po": 4481,
  "pur": 4482,
  "PE": 4483,
  "活": 4484,
  "▁Design": 4485,
  "铁": 4486,
  "▁finally": 4487,
  "革命": 4488,
  "▁visited": 4489,
  "衣": 4490,
  "▁entered": 4491,
  "▁employment": 4492,
  "▁Chief": 4493,
  "▁failure": 4494,
  "▁Min": 4495,
  "▁FOR": 4496,
  "OP": 4497,
  "确认": 4498,
  "索赔": 4499,
  "▁option": 4500,
  "bro": 4501,
  "古巴": 4502,
  "汉": 4503,
  "▁husband": 4504,
  "厅": 4505,
  "▁equipped": 4506,
  "▁Among": 4507,
  "▁manner": 4508,
  "▁defined": 4509,
  "▁IT": 4510,
  "过程中": 4511,
  "▁southern": 4512,
  "▁ones": 4513,
  "压力": 4514,
  "ush": 4515,
  "▁opinion": 4516,
  "香": 4517,
  "估计": 4518,
  "ct": 4519,
  "南非": 4520,
  "▁Civil": 4521,
  "倡议": 4522,
  "▁sp": 4523,
  "▁toward": 4524,
  "基础": 4525,
  "奥地利": 4526,
  "▁Bra": 4527,
  "▁machines": 4528,
  "成员国": 4529,
  "▁twenty": 4530,
  "▁Space": 4531,
  "▁Allah": 4532,
  "uff": 4533,
  "▁Food": 4534,
  "ators": 4535,
  "▁Life": 4536,
  "▁biggest": 4537,
  "▁Book": 4538,
  "泽": 4539,
  "母": 4540,
  "政": 4541,
  "▁recognized": 4542,
  "▁attacks": 4543,
  "丁": 4544,
  "就业": 4545,
  "▁university": 4546,
  "▁III": 4547,
  "▁对于": 4548,
  "▁watch": 4549,
  "yr": 4550,
  "▁Er": 4551,
  "▁useful": 4552,
  "▁Page": 4553,
  "角": 4554,
  "▁Bay": 4555,
  "▁expression": 4556,
  "▁obtained": 4557,
  "ET": 4558,
  "研究人员": 4559,
  "▁goes": 4560,
  "arch": 4561,
  "密": 4562,
  "时期": 4563,
  "波兰": 4564,
  "ras": 4565,
  "▁amounted": 4566,
  "On": 4567,
  "▁OR": 4568,
  "最佳": 4569,
  "▁Ali": 4570,
  "▁spirit": 4571,
  "▁registration": 4572,
  "▁Jews": 4573,
  "▁transportation": 4574,
  "▁mu": 4575,
  "首次": 4576,
  "地址": 4577,
  "EL": 4578,
  "▁Views": 4579,
  "▁notes": 4580,
  "▁Program": 4581,
  "▁Prime": 4582,
  "eu": 4583,
  "查看": 4584,
  "▁academic": 4585,
  "▁architecture": 4586,
  "://": 4587,
  "▁alternative": 4588,
  "▁extremely": 4589,
  "麦": 4590,
  "mel": 4591,
  "▁forced": 4592,
  "▁acts": 4593,
  "ess": 4594,
  "▁operational": 4595,
  "▁mode": 4596,
  "▁Advisory": 4597,
  "PR": 4598,
  "▁Northern": 4599,
  "▁intelligence": 4600,
  "一系列": 4601,
  "理论": 4602,
  "▁HIV": 4603,
  "港": 4604,
  "你可以": 4605,
  "▁houses": 4606,
  "▁reporting": 4607,
  "point": 4608,
  "▁Previous": 4609,
  "▁Main": 4610,
  "▁articles": 4611,
  "▁RE": 4612,
  "使用的": 4613,
  "▁innovative": 4614,
  "患者": 4615,
  "明确": 4616,
  "▁Ke": 4617,
  "▁Ireland": 4618,
  "组成": 4619,
  "居民": 4620,
  "▁Time": 4621,
  "ore": 4622,
  "bat": 4623,
  "▁Shanghai": 4624,
  "定义": 4625,
  "▁sell": 4626,
  "oz": 4627,
  "万美元": 4628,
  "▁Vice": 4629,
  "sis": 4630,
  "丹": 4631,
  "▁Control": 4632,
  "的话": 4633,
  "遵守": 4634,
  "Ka": 4635,
  "▁shot": 4636,
  "▁College": 4637,
  "芬兰": 4638,
  "▁smaller": 4639,
  "破坏": 4640,
  "发射": 4641,
  "▁preparation": 4642,
  "床": 4643,
  "als": 4644,
  "供应": 4645,
  "%),": 4646,
  "速": 4647,
  "纸": 4648,
  "▁cap": 4649,
  "肉": 4650,
  "▁stress": 4651,
  "分享": 4652,
  "down": 4653,
  "EP": 4654,
  "的其他": 4655,
  "大的": 4656,
  "▁composition": 4657,
  "ory": 4658,
  "领": 4659,
  "随": 4660,
  "千": 4661,
  "‘": 4662,
  "▁Pacific": 4663,
  "ses": 4664,
  "▁king": 4665,
  "▁fo": 4666,
  "▁province": 4667,
  "▁Medical": 4668,
  "▁draw": 4669,
  "下降": 4670,
  "装置": 4671,
  "▁significantly": 4672,
  "部署": 4673,
  "人士": 4674,
  "▁Th": 4675,
  "▁recorded": 4676,
  "▁remote": 4677,
  "服": 4678,
  "画": 4679,
  "top": 4680,
  "▁possibility": 4681,
  "保障": 4682,
  "兵": 4683,
  "▁par": 4684,
  "话": 4685,
  "推出": 4686,
  "反应": 4687,
  "▁write": 4688,
  "训练": 4689,
  "uch": 4690,
  "▁healthy": 4691,
  "货币": 4692,
  "▁California": 4693,
  "齐": 4694,
  "▁crime": 4695,
  "▁wrong": 4696,
  "▁aimed": 4697,
  "▁Each": 4698,
  "打击": 4699,
  "牛": 4700,
  "关": 4701,
  "▁shape": 4702,
  "▁contributions": 4703,
  "▁Mobile": 4704,
  "▁victims": 4705,
  "▁implemented": 4706,
  "▁本": 4707,
  "mor": 4708,
  "▁factory": 4709,
  "公开": 4710,
  "▁vision": 4711,
  "信号": 4712,
  "▁rural": 4713,
  "发展中国家": 4714,
  "matic": 4715,
  "▁doctor": 4716,
  "霍": 4717,
  "post": 4718,
  "FA": 4719,
  "传播": 4720,
  "▁美国": 4721,
  "▁Airport": 4722,
  "▁widely": 4723,
  "▁Bur": 4724,
  "▁guide": 4725,
  "运营": 4726,
  "▁Mark": 4727,
  "您可以": 4728,
  "bn": 4729,
  "▁tried": 4730,
  "lay": 4731,
  "配置": 4732,
  "uz": 4733,
  "登记": 4734,
  "力量": 4735,
  "▁George": 4736,
  "▁practical": 4737,
  "▁Grand": 4738,
  "hor": 4739,
  "主管": 4740,
  "博物馆": 4741,
  "而是": 4742,
  "提出了": 4743,
  "▁load": 4744,
  "▁sum": 4745,
  "FI": 4746,
  "▁arms": 4747,
  "▁Syria": 4748,
  "环": 4749,
  "▁Fo": 4750,
  "▁faith": 4751,
  "▁spring": 4752,
  "▁Ser": 4753,
  "▁category": 4754,
  "松": 4755,
  "ale": 4756,
  "手机": 4757,
  "▁Ju": 4758,
  "▁Robert": 4759,
  "▁executive": 4760,
  "▁speech": 4761,
  "▁improved": 4762,
  "▁camp": 4763,
  "▁resource": 4764,
  "灯": 4765,
  "后来": 4766,
  "案件": 4767,
  "▁picture": 4768,
  "och": 4769,
  "▁cycle": 4770,
  "▁www": 4771,
  "▁leadership": 4772,
  "▁Good": 4773,
  "结合": 4774,
  "概念": 4775,
  "街": 4776,
  "get": 4777,
  "ect": 4778,
  "演": 4779,
  "矿": 4780,
  "▁residents": 4781,
  "拒绝": 4782,
  "可以在": 4783,
  "ati": 4784,
  "▁informed": 4785,
  "▁suitable": 4786,
  "▁older": 4787,
  "叶": 4788,
  "效": 4789,
  "wer": 4790,
  "▁characteristics": 4791,
  "▁Michael": 4792,
  "▁measure": 4793,
  "做出": 4794,
  "making": 4795,
  "ys": 4796,
  "▁labour": 4797,
  "▁thinking": 4798,
  "▁remained": 4799,
  "结束": 4800,
  "救": 4801,
  "▁positions": 4802,
  "▁novel": 4803,
  "▁guests": 4804,
  "丽": 4805,
  "▁tests": 4806,
  "考虑到": 4807,
  "DC": 4808,
  "可持续发展": 4809,
  "财产": 4810,
  "▁labor": 4811,
  "itis": 4812,
  "致力于": 4813,
  "▁ice": 4814,
  "谈判": 4815,
  "Do": 4816,
  "▁agricultural": 4817,
  "bur": 4818,
  "分配": 4819,
  "稳定": 4820,
  "press": 4821,
  "▁reading": 4822,
  "现有": 4823,
  "聚": 4824,
  "传感器": 4825,
  "ena": 4826,
  "▁Just": 4827,
  "ali": 4828,
  "女孩": 4829,
  "▁trading": 4830,
  "▁Brazil": 4831,
  "bed": 4832,
  "Man": 4833,
  "形成": 4834,
  "akh": 4835,
  "met": 4836,
  "的能力": 4837,
  "▁这是": 4838,
  "▁chain": 4839,
  "AF": 4840,
  "生命": 4841,
  "备": 4842,
  "▁bi": 4843,
  "▁selected": 4844,
  "▁Trump": 4845,
  "ear": 4846,
  "water": 4847,
  "▁detailed": 4848,
  "ration": 4849,
  "▁hear": 4850,
  "▁mechanism": 4851,
  "的使用": 4852,
  "▁Palestinian": 4853,
  "lov": 4854,
  "▁reform": 4855,
  "▁Georgia": 4856,
  "▁ID": 4857,
  "▁successfully": 4858,
  "▁这个": 4859,
  "停": 4860,
  "oth": 4861,
  "普遍": 4862,
  "盘": 4863,
  "▁joined": 4864,
  "▁challenges": 4865,
  "UL": 4866,
  "▁GE": 4867,
  "最大": 4868,
  "恐怖主义": 4869,
  "DA": 4870,
  "▁Ze": 4871,
  "▁Master": 4872,
  "hand": 4873,
  "难": 4874,
  "讲": 4875,
  "▁records": 4876,
  "▁moving": 4877,
  "▁achieved": 4878,
  "消费者": 4879,
  "安理会": 4880,
  "底": 4881,
  "▁stone": 4882,
  "▁iron": 4883,
  "▁Old": 4884,
  "展示": 4885,
  "▁defense": 4886,
  "平等": 4887,
  "供应商": 4888,
  "▁calls": 4889,
  "▁equivalent": 4890,
  "成果": 4891,
  "体系": 4892,
  "桑": 4893,
  "获取": 4894,
  "rt": 4895,
  "▁clients": 4896,
  "gn": 4897,
  "有些": 4898,
  "岁的": 4899,
  "▁Inc": 4900,
  "议会": 4901,
  "pha": 4902,
  "飞行": 4903,
  "▁fundamental": 4904,
  "▁desire": 4905,
  "▁Justice": 4906,
  "▁kill": 4907,
  "▁regulations": 4908,
  "CH": 4909,
  "▁seem": 4910,
  "state": 4911,
  "▁Netherlands": 4912,
  "▁clearly": 4913,
  "▁accounts": 4914,
  "之外": 4915,
  "bot": 4916,
  "驻": 4917,
  "在一个": 4918,
  "▁Ter": 4919,
  "▁discussion": 4920,
  "退": 4921,
  "▁integration": 4922,
  "teen": 4923,
  "▁despite": 4924,
  "▁estate": 4925,
  "▁Democratic": 4926,
  "领域的": 4927,
  "UR": 4928,
  "佛": 4929,
  "日期": 4930,
  "即使": 4931,
  "dam": 4932,
  "who": 4933,
  "▁host": 4934,
  "▁identify": 4935,
  "▁religion": 4936,
  "▁universe": 4937,
  "▁managed": 4938,
  "DR": 4939,
  "▁becoming": 4940,
  "地区的": 4941,
  "临时": 4942,
  "▁Industry": 4943,
  "病毒": 4944,
  "▁collaboration": 4945,
  "▁appeal": 4946,
  "▁eat": 4947,
  "▁ne": 4948,
  "▁justice": 4949,
  "▁Chan": 4950,
  "缺乏": 4951,
  "专": 4952,
  "sing": 4953,
  "▁goals": 4954,
  "▁solid": 4955,
  "▁struggle": 4956,
  "part": 4957,
  "▁Representative": 4958,
  "▁Bas": 4959,
  "享受": 4960,
  "▁techniques": 4961,
  "IM": 4962,
  "▁Far": 4963,
  "ae": 4964,
  "▁aid": 4965,
  "第一个": 4966,
  "顾问": 4967,
  "▁Switzerland": 4968,
  "▁background": 4969,
  "▁continuing": 4970,
  "编辑": 4971,
  "▁Meeting": 4972,
  "算": 4973,
  "▁railway": 4974,
  "阿根廷": 4975,
  "地点": 4976,
  "▁thanks": 4977,
  "▁route": 4978,
  "ase": 4979,
  "▁soldiers": 4980,
  "▁agency": 4981,
  "▁offices": 4982,
  "者的": 4983,
  "logy": 4984,
  "▁confirmed": 4985,
  "制造商": 4986,
  "每天": 4987,
  "下载": 4988,
  "停止": 4989,
  "▁sa": 4990,
  "LY": 4991,
  "▁affected": 4992,
  "▁looked": 4993,
  "▁installed": 4994,
  "阿拉伯": 4995,
  "才能": 4996,
  "wood": 4997,
  "商品": 4998,
  "受害者": 4999,
  "块": 5000,
  "▁Petersburg": 5001,
  "▁businesses": 5002,
  "▁Ki": 5003,
  "▁causes": 5004,
  "▁coast": 5005,
  "bri": 5006,
  "▁Administration": 5007,
  "avi": 5008,
  "ency": 5009,
  "cing": 5010,
  "该国": 5011,
  "▁diet": 5012,
  "▁enable": 5013,
  "▁mini": 5014,
  "▁relatively": 5015,
  "▁player": 5016,
  "除了": 5017,
  "朗": 5018,
  "▁winter": 5019,
  "▁decades": 5020,
  "本身": 5021,
  "▁federal": 5022,
  "▁poverty": 5023,
  "▁Use": 5024,
  "MB": 5025,
  "伊朗": 5026,
  "▁investigation": 5027,
  "▁Kh": 5028,
  "ette": 5029,
  "▁flat": 5030,
  "▁appearance": 5031,
  "▁attempt": 5032,
  "If": 5033,
  "▁委员会": 5034,
  "▁jobs": 5035,
  "nie": 5036,
  "载于": 5037,
  "•": 5038,
  "试": 5039,
  "▁east": 5040,
  "凡": 5041,
  "▁museum": 5042,
  "ace": 5043,
  "的法律": 5044,
  "▁innovation": 5045,
  "▁Environment": 5046,
  "aka": 5047,
  "read": 5048,
  "增强": 5049,
  "inter": 5050,
  "▁Greece": 5051,
  "合作伙伴": 5052,
  "将其": 5053,
  "▁Mat": 5054,
  "GB": 5055,
  "▁teaching": 5056,
  "cor": 5057,
  "▁capable": 5058,
  "样": 5059,
  "So": 5060,
  "▁efficient": 5061,
  "▁drop": 5062,
  "Mar": 5063,
  "PO": 5064,
  "▁Mag": 5065,
  "nik": 5066,
  "gor": 5067,
  "▁Ak": 5068,
  "▁Are": 5069,
  "ert": 5070,
  "▁Ber": 5071,
  "▁holding": 5072,
  "▁format": 5073,
  "穿": 5074,
  "宝": 5075,
  "乌克兰": 5076,
  "▁owner": 5077,
  "▁fell": 5078,
  "实体": 5079,
  "governmental": 5080,
  "▁instruments": 5081,
  "meter": 5082,
  "New": 5083,
  "▁interface": 5084,
  "进展": 5085,
  "第五": 5086,
  "娜": 5087,
  "▁helped": 5088,
  "book": 5089,
  "▁compensation": 5090,
  "团体": 5091,
  "activ": 5092,
  "▁ethnic": 5093,
  "FC": 5094,
  "▁appears": 5095,
  "另一": 5096,
  "▁Cal": 5097,
  "异": 5098,
  "主任": 5099,
  "▁liquid": 5100,
  "eo": 5101,
  "领土": 5102,
  "准则": 5103,
  "咖啡": 5104,
  "▁spend": 5105,
  "▁rock": 5106,
  "gel": 5107,
  "kan": 5108,
  "TV": 5109,
  "wing": 5110,
  "▁camera": 5111,
  "▁Therefore": 5112,
  "IV": 5113,
  "▁notice": 5114,
  "编写": 5115,
  "加工": 5116,
  "属": 5117,
  "hour": 5118,
  "▁cloud": 5119,
  "告诉": 5120,
  "▁touch": 5121,
  "葡萄牙": 5122,
  "需": 5123,
  "▁Unit": 5124,
  "如下": 5125,
  "阅读": 5126,
  "▁CD": 5127,
  "▁database": 5128,
  "ill": 5129,
  "▁Syrian": 5130,
  "▁calculated": 5131,
  "quot": 5132,
  "的规定": 5133,
  "OL": 5134,
  "欧元": 5135,
  "vent": 5136,
  "▁clinical": 5137,
  "mol": 5138,
  "丝": 5139,
  "dra": 5140,
  "BI": 5141,
  "▁emergency": 5142,
  "▁initiative": 5143,
  "▁tea": 5144,
  "保险": 5145,
  "▁universal": 5146,
  "▁Industrial": 5147,
  "野": 5148,
  "断": 5149,
  "离开": 5150,
  "por": 5151,
  "As": 5152,
  "外交": 5153,
  "▁happened": 5154,
  "尽": 5155,
  "大部分": 5156,
  "难民": 5157,
  "▁ad": 5158,
  "▁currency": 5159,
  "BC": 5160,
  "随后": 5161,
  "范围内": 5162,
  "公园": 5163,
  "Sa": 5164,
  "ave": 5165,
  "▁shift": 5166,
  "前往": 5167,
  "▁shared": 5168,
  "▁kept": 5169,
  "附近": 5170,
  "▁concern": 5171,
  "倒": 5172,
  "vel": 5173,
  "▁Cooperation": 5174,
  "▁fixed": 5175,
  "律师": 5176,
  "类似": 5177,
  "▁ST": 5178,
  "▁revealed": 5179,
  "IDB": 5180,
  "时代": 5181,
  "小型": 5182,
  "AB": 5183,
  "保健": 5184,
  "ass": 5185,
  "▁observed": 5186,
  "它是": 5187,
  "▁murder": 5188,
  "▁files": 5189,
  "▁foot": 5190,
  "编": 5191,
  "归": 5192,
  "hol": 5193,
  "gh": 5194,
  "启动": 5195,
  "田": 5196,
  "OT": 5197,
  "材": 5198,
  "▁Je": 5199,
  "应对": 5200,
  "Or": 5201,
  "ME": 5202,
  "lam": 5203,
  "巴基斯坦": 5204,
  "▁kg": 5205,
  "利益": 5206,
  "ail": 5207,
  "lot": 5208,
  "▁flu": 5209,
  "▁element": 5210,
  "ars": 5211,
  "PI": 5212,
  "ral": 5213,
  "▁combat": 5214,
  "person": 5215,
  "▁felt": 5216,
  "▁Technical": 5217,
  "正常": 5218,
  "危机": 5219,
  "▁setting": 5220,
  "▁Br": 5221,
  "接触": 5222,
  "农": 5223,
  "将会": 5224,
  "零": 5225,
  "▁era": 5226,
  "▁soul": 5227,
  "▁slow": 5228,
  "trans": 5229,
  "del": 5230,
  "感谢": 5231,
  "▁select": 5232,
  "ula": 5233,
  "▁election": 5234,
  "邦": 5235,
  "自我": 5236,
  "ban": 5237,
  "经营": 5238,
  "▁block": 5239,
  "▁Parliament": 5240,
  "▁bed": 5241,
  "现象": 5242,
  "▁weak": 5243,
  "▁App": 5244,
  "sil": 5245,
  "▁rare": 5246,
  "避免": 5247,
  "▁appointed": 5248,
  "的活动": 5249,
  "官员": 5250,
  "▁figures": 5251,
  "▁television": 5252,
  "全部": 5253,
  "巴勒斯坦": 5254,
  "情况下": 5255,
  "▁Panel": 5256,
  "▁express": 5257,
  "▁therapy": 5258,
  "vor": 5259,
  "ata": 5260,
  "今年": 5261,
  "史": 5262,
  "默": 5263,
  "unt": 5264,
  "VI": 5265,
  "▁secure": 5266,
  "▁limit": 5267,
  "复": 5268,
  "▁protein": 5269,
  "▁bill": 5270,
  "under": 5271,
  "cl": 5272,
  "立即": 5273,
  "aga": 5274,
  "带来": 5275,
  "▁dream": 5276,
  "缔约方": 5277,
  "宽": 5278,
  "专利": 5279,
  "北京": 5280,
  "▁smart": 5281,
  "▁medicine": 5282,
  "▁Such": 5283,
  "署": 5284,
  "▁delegation": 5285,
  "真的": 5286,
  "cc": 5287,
  "实验": 5288,
  "cus": 5289,
  "轻": 5290,
  "哥伦比亚": 5291,
  "▁Their": 5292,
  "anda": 5293,
  "▁Long": 5294,
  "的发展": 5295,
  "hood": 5296,
  "EA": 5297,
  "亲": 5298,
  "表面": 5299,
  "illa": 5300,
  "og": 5301,
  "▁stars": 5302,
  "▁pilot": 5303,
  "▁broad": 5304,
  "▁Par": 5305,
  "▁Any": 5306,
  "有人": 5307,
  "指南": 5308,
  "▁imp": 5309,
  "Na": 5310,
  "▁installation": 5311,
  "▁manage": 5312,
  "同样": 5313,
  "体育": 5314,
  "那里": 5315,
  "预计": 5316,
  "身份": 5317,
  "克斯": 5318,
  "维持": 5319,
  "ats": 5320,
  "they": 5321,
  "助": 5322,
  "▁Windows": 5323,
  "▁playing": 5324,
  "ign": 5325,
  "▁promotion": 5326,
  "▁corporate": 5327,
  "据": 5328,
  "aya": 5329,
  "All": 5330,
  "▁Area": 5331,
  "▁dangerous": 5332,
  "附": 5333,
  "▁transition": 5334,
  "▁Protocol": 5335,
  "▁continues": 5336,
  "适合": 5337,
  "设立": 5338,
  "议程项目": 5339,
  "▁electricity": 5340,
  "ded": 5341,
  "DM": 5342,
  "▁helps": 5343,
  "工作的": 5344,
  "▁James": 5345,
  "▁studied": 5346,
  "的方法": 5347,
  "▁contribute": 5348,
  "▁divided": 5349,
  "表现": 5350,
  "维护": 5351,
  "灵": 5352,
  "啊": 5353,
  "统一": 5354,
  "吨": 5355,
  "▁Type": 5356,
  "pr": 5357,
  "▁happy": 5358,
  "▁fresh": 5359,
  "劳": 5360,
  "▁component": 5361,
  "▁mostly": 5362,
  "▁destroyed": 5363,
  "▁amounts": 5364,
  "▁indicated": 5365,
  "效果": 5366,
  "含": 5367,
  "▁occur": 5368,
  "cra": 5369,
  "▁Only": 5370,
  "趋势": 5371,
  "head": 5372,
  "▁Rome": 5373,
  "star": 5374,
  "宪法": 5375,
  "▁warm": 5376,
  "▁Light": 5377,
  "▁join": 5378,
  "▁如果您": 5379,
  "SO": 5380,
  "▁client": 5381,
  "oh": 5382,
  "SM": 5383,
  "守": 5384,
  "特别报告员": 5385,
  "脚": 5386,
  "▁Multi": 5387,
  "this": 5388,
  "构成": 5389,
  "戴": 5390,
  "mes": 5391,
  "shan": 5392,
  "基地": 5393,
  "▁focused": 5394,
  "年龄": 5395,
  "堡": 5396,
  "▁Im": 5397,
  "bor": 5398,
  "▁mine": 5399,
  "NA": 5400,
  "▁ha": 5401,
  "aj": 5402,
  "简单": 5403,
  "test": 5404,
  "▁mo": 5405,
  "▁Peace": 5406,
  "最好的": 5407,
  "▁factor": 5408,
  "友": 5409,
  "▁consumer": 5410,
  "▁Bel": 5411,
  "rid": 5412,
  "▁doubt": 5413,
  "els": 5414,
  "▁trial": 5415,
  "▁fat": 5416,
  "▁stations": 5417,
  "list": 5418,
  "▁monitor": 5419,
  "▁battery": 5420,
  "▁minister": 5421,
  "印": 5422,
  "特殊": 5423,
  "power": 5424,
  "▁investors": 5425,
  "▁adoption": 5426,
  "▁Ac": 5427,
  "▁primarily": 5428,
  "▁AM": 5429,
  "▁Sciences": 5430,
  "▁deliver": 5431,
  "何": 5432,
  "pped": 5433,
  "▁experienced": 5434,
  "▁soft": 5435,
  "▁tree": 5436,
  "官方": 5437,
  "cul": 5438,
  "▁sha": 5439,
  "苏丹": 5440,
  "▁kinds": 5441,
  "在一起": 5442,
  "▁Armenia": 5443,
  "wel": 5444,
  "▁package": 5445,
  "dal": 5446,
  "集成": 5447,
  "条例": 5448,
  "▁facilitate": 5449,
  "▁Saudi": 5450,
  "LA": 5451,
  "真正": 5452,
  "CM": 5453,
  "▁Order": 5454,
  "混合": 5455,
  "pt": 5456,
  "方向": 5457,
  "人数": 5458,
  "mission": 5459,
  "亮": 5460,
  "▁Sp": 5461,
  "藏": 5462,
  "▁fair": 5463,
  "甲": 5464,
  "▁raise": 5465,
  "▁trip": 5466,
  "ea": 5467,
  "消息": 5468,
  "▁permanent": 5469,
  "tru": 5470,
  "▁revolution": 5471,
  "▁accepted": 5472,
  "▁dog": 5473,
  "▁agreements": 5474,
  "罗马": 5475,
  "▁circumstances": 5476,
  "CR": 5477,
  "▁arrested": 5478,
  "ole": 5479,
  "阿富汗": 5480,
  "善": 5481,
  "背景": 5482,
  "▁bo": 5483,
  "ado": 5484,
  "▁categories": 5485,
  "馆": 5486,
  "▁couple": 5487,
  "▁Ag": 5488,
  "▁sh": 5489,
  "box": 5490,
  "▁Gi": 5491,
  "伊斯兰": 5492,
  "▁fun": 5493,
  "识别": 5494,
  "▁AD": 5495,
  "义": 5496,
  "多种": 5497,
  "办法": 5498,
  "▁band": 5499,
  "▁evaluation": 5500,
  "泰国": 5501,
  "联合会": 5502,
  "爱尔兰": 5503,
  "详细": 5504,
  "▁internet": 5505,
  "▁partnership": 5506,
  "补充": 5507,
  "fo": 5508,
  "审": 5509,
  "▁represented": 5510,
  "处于": 5511,
  "余": 5512,
  "在美国": 5513,
  "will": 5514,
  "旧": 5515,
  "车辆": 5516,
  "PL": 5517,
  "▁nations": 5518,
  "▁club": 5519,
  "感染": 5520,
  "ste": 5521,
  "▁affect": 5522,
  "stone": 5523,
  "▁intellectual": 5524,
  "▁Let": 5525,
  "▁Jan": 5526,
  "▁update": 5527,
  "▁arrived": 5528,
  "▁作为": 5529,
  "GO": 5530,
  "▁Gra": 5531,
  "劳动": 5532,
  "high": 5533,
  "IO": 5534,
  "采购": 5535,
  "▁delivered": 5536,
  "▁Turkish": 5537,
  "返回": 5538,
  "曲": 5539,
  "▁Dan": 5540,
  "技能": 5541,
  "石油": 5542,
  "▁Pu": 5543,
  "▁prevention": 5544,
  "▁advance": 5545,
  "gra": 5546,
  "▁discussed": 5547,
  "▁manager": 5548,
  "▁pages": 5549,
  "bul": 5550,
  "nar": 5551,
  "▁mechanisms": 5552,
  "呼吁": 5553,
  "ona": 5554,
  "组合": 5555,
  "搜索": 5556,
  "镇": 5557,
  "格式": 5558,
  "▁ocean": 5559,
  "骨": 5560,
  "rk": 5561,
  "RT": 5562,
  "▁relation": 5563,
  "▁satellite": 5564,
  "买": 5565,
  "▁claimed": 5566,
  "Vi": 5567,
  "▁exactly": 5568,
  "▁settlement": 5569,
  "▁Ph": 5570,
  "▁Sweden": 5571,
  "▁symptoms": 5572,
  "▁PC": 5573,
  "▁agents": 5574,
  "▁specifically": 5575,
  "SU": 5576,
  "▁explained": 5577,
  "消费": 5578,
  "▁Comp": 5579,
  "▁navigation": 5580,
  "提升": 5581,
  "▁Ed": 5582,
  "▁Qu": 5583,
  "▁Pen": 5584,
  "重要的": 5585,
  "▁Van": 5586,
  "约翰": 5587,
  "▁threat": 5588,
  "▁Call": 5589,
  "▁Mal": 5590,
  "足": 5591,
  "oph": 5592,
  "▁contribution": 5593,
  "科学家": 5594,
  "▁teacher": 5595,
  "cess": 5596,
  "账户": 5597,
  "不再": 5598,
  "协商": 5599,
  "cu": 5600,
  "<": 5601,
  "▁AS": 5602,
  "ising": 5603,
  "▁coffee": 5604,
  "年前": 5605,
  "设": 5606,
  "▁west": 5607,
  "▁creative": 5608,
  "胡": 5609,
  "俄罗斯联邦": 5610,
  "▁greatest": 5611,
  "比利时": 5612,
  "▁Rapporteur": 5613,
  "上帝": 5614,
  "杂志": 5615,
  "▁electrical": 5616,
  "▁fashion": 5617,
  "下的": 5618,
  "▁Review": 5619,
  "▁remaining": 5620,
  "紧": 5621,
  "▁Holy": 5622,
  "▁porn": 5623,
  "▁inform": 5624,
  "tt": 5625,
  "tern": 5626,
  "▁symbol": 5627,
  "▁consultations": 5628,
  "month": 5629,
  "Qu": 5630,
  "run": 5631,
  "EN": 5632,
  "校": 5633,
  "ld": 5634,
  "vy": 5635,
  "Di": 5636,
  "tov": 5637,
  "▁Community": 5638,
  "马来西亚": 5639,
  "▁atmosphere": 5640,
  "记": 5641,
  "景": 5642,
  "hat": 5643,
  "é": 5644,
  "▁photos": 5645,
  "win": 5646,
  "依": 5647,
  "▁Cho": 5648,
  "伦敦": 5649,
  "箱": 5650,
  "孔": 5651,
  "▁beach": 5652,
  "▁enhance": 5653,
  "迷": 5654,
  "▁Up": 5655,
  "▁description": 5656,
  "医学": 5657,
  "ute": 5658,
  "菲律宾": 5659,
  "发表": 5660,
  "▁hundreds": 5661,
  "born": 5662,
  "支": 5663,
  "▁ships": 5664,
  "view": 5665,
  "▁occurred": 5666,
  "表达": 5667,
  "也可以": 5668,
  "策略": 5669,
  "▁replaced": 5670,
  "核心": 5671,
  "TER": 5672,
  "▁matters": 5673,
  "▁specified": 5674,
  "当前": 5675,
  "新加坡": 5676,
  "▁boy": 5677,
  "任命": 5678,
  "gy": 5679,
  "▁transmission": 5680,
  "ub": 5681,
  "bank": 5682,
  "▁Fe": 5683,
  "对象": 5684,
  "▁目前": 5685,
  "钢": 5686,
  "胶": 5687,
  "▁pop": 5688,
  "系统的": 5689,
  "▁现在": 5690,
  "CE": 5691,
  "▁van": 5692,
  "▁Police": 5693,
  "Pa": 5694,
  "▁selection": 5695,
  "指标": 5696,
  "外国": 5697,
  "made": 5698,
  "EX": 5699,
  "pin": 5700,
  "bb": 5701,
  "既": 5702,
  "play": 5703,
  "故事": 5704,
  "赔偿": 5705,
  "▁Joint": 5706,
  "▁abuse": 5707,
  "症": 5708,
  "▁rose": 5709,
  "▁solve": 5710,
  "▁extent": 5711,
  "▁Nu": 5712,
  "机器人": 5713,
  "县": 5714,
  "pri": 5715,
  "▁Work": 5716,
  "Ba": 5717,
  "▁festival": 5718,
  "▁eventually": 5719,
  "▁mandate": 5720,
  "▁Will": 5721,
  "▁bridge": 5722,
  "资本": 5723,
  "▁hotels": 5724,
  "pu": 5725,
  "▁substances": 5726,
  "▁weather": 5727,
  "迅速": 5728,
  "life": 5729,
  "▁publication": 5730,
  "▁awarded": 5731,
  "▁wants": 5732,
  "NE": 5733,
  "rest": 5734,
  "key": 5735,
  "义务": 5736,
  "▁facility": 5737,
  "exp": 5738,
  "▁controlled": 5739,
  "链": 5740,
  "活动的": 5741,
  "▁looks": 5742,
  "雪": 5743,
  "ovsky": 5744,
  "▁Austria": 5745,
  "餐厅": 5746,
  "▁learned": 5747,
  "▁strengthen": 5748,
  "相比": 5749,
  "货物": 5750,
  "给予": 5751,
  "▁Afghanistan": 5752,
  "玩": 5753,
  "▁h": 5754,
  "丹麦": 5755,
  "提到": 5756,
  "▁secretariat": 5757,
  "▁pick": 5758,
  "▁View": 5759,
  "▁improving": 5760,
  "▁humans": 5761,
  "在那里": 5762,
  "记者": 5763,
  "编制": 5764,
  "航": 5765,
  "▁meat": 5766,
  "gin": 5767,
  "▁阿": 5768,
  "艾滋病": 5769,
  "▁stable": 5770,
  "父母": 5771,
  "Ho": 5772,
  "▁wear": 5773,
  "lock": 5774,
  "hn": 5775,
  "覆盖": 5776,
  "产业": 5777,
  "KA": 5778,
  "▁Section": 5779,
  "发送": 5780,
  "伤": 5781,
  "▁latter": 5782,
  "gas": 5783,
  "冷": 5784,
  "违反": 5785,
  "▁entry": 5786,
  "▁treat": 5787,
  "在这里": 5788,
  "▁revenue": 5789,
  "▁interview": 5790,
  "债务": 5791,
  "文本": 5792,
  "输入": 5793,
  "▁Kha": 5794,
  "武": 5795,
  "出来": 5796,
  "分类": 5797,
  "可能是": 5798,
  "▁soil": 5799,
  "享有": 5800,
  "▁mention": 5801,
  "▁Hall": 5802,
  "▁illegal": 5803,
  "冰": 5804,
  "▁Read": 5805,
  "这是一个": 5806,
  "▁artists": 5807,
  "养": 5808,
  "▁baby": 5809,
  "比赛": 5810,
  "MI": 5811,
  "▁hyper": 5812,
  "真正的": 5813,
  "cas": 5814,
  "▁Bre": 5815,
  "▁frequency": 5816,
  "机器": 5817,
  "PT": 5818,
  "决议": 5819,
  "名称": 5820,
  "▁Royal": 5821,
  "现实": 5822,
  "置": 5823,
  "印度尼西亚": 5824,
  "▁engaged": 5825,
  "▁expansion": 5826,
  "▁officer": 5827,
  "RI": 5828,
  "▁Three": 5829,
  "玻璃": 5830,
  "▁classes": 5831,
  "▁Muslim": 5832,
  "▁represent": 5833,
  "进口": 5834,
  "AZ": 5835,
  "▁Armenian": 5836,
  "▁visual": 5837,
  "ON": 5838,
  "▁severe": 5839,
  "▁finance": 5840,
  "▁remove": 5841,
  "曾经": 5842,
  "▁drink": 5843,
  "的项目": 5844,
  "越南": 5845,
  "一条": 5846,
  "优先": 5847,
  "▁Los": 5848,
  "tis": 5849,
  "十年": 5850,
  "朝": 5851,
  "▁reliable": 5852,
  "▁movie": 5853,
  "AN": 5854,
  "gon": 5855,
  "▁kilometers": 5856,
  "无论": 5857,
  "uni": 5858,
  "▁Sho": 5859,
  "实际上": 5860,
  "mu": 5861,
  "▁请": 5862,
  "▁elections": 5863,
  "▁allowing": 5864,
  "出售": 5865,
  "▁statements": 5866,
  "▁mono": 5867,
  "▁die": 5868,
  "洗": 5869,
  "的产品": 5870,
  "EU": 5871,
  "▁PM": 5872,
  "▁isn": 5873,
  "sum": 5874,
  "军队": 5875,
  "▁temporary": 5876,
  "▁honor": 5877,
  "空气": 5878,
  "危险": 5879,
  "散": 5880,
  "燃料": 5881,
  "手段": 5882,
  "住房": 5883,
  "▁tasks": 5884,
  "▁Market": 5885,
  "的决议草案": 5886,
  "▁colleagues": 5887,
  "的结果": 5888,
  "ble": 5889,
  "纳入": 5890,
  "▁Korean": 5891,
  "BS": 5892,
  "▁shares": 5893,
  "graph": 5894,
  "▁teachers": 5895,
  "KO": 5896,
  "▁adult": 5897,
  "十分": 5898,
  "had": 5899,
  "▁obtain": 5900,
  "规模": 5901,
  "广": 5902,
  "哥": 5903,
  "aging": 5904,
  "背": 5905,
  "▁DNA": 5906,
  "▁lose": 5907,
  "most": 5908,
  "袭击": 5909,
  "研讨会": 5910,
  "研发": 5911,
  "Car": 5912,
  "的东西": 5913,
  "HA": 5914,
  "▁hall": 5915,
  "黄": 5916,
  "▁abroad": 5917,
  "aki": 5918,
  "▁Nor": 5919,
  "笑": 5920,
  "United": 5921,
  "▁aim": 5922,
  "▁encourage": 5923,
  "述": 5924,
  "position": 5925,
  "都有": 5926,
  "公众": 5927,
  "ern": 5928,
  "犯": 5929,
  "杀": 5930,
  "▁comments": 5931,
  "put": 5932,
  "身体": 5933,
  "▁industries": 5934,
  "▁Age": 5935,
  "▁CEO": 5936,
  "than": 5937,
  "寻找": 5938,
  "适当": 5939,
  "▁assist": 5940,
  "一天": 5941,
  "grad": 5942,
  "南部": 5943,
  "▁seconds": 5944,
  "▁revised": 5945,
  "iti": 5946,
  "▁ro": 5947,
  "ving": 5948,
  "▁trees": 5949,
  "Russian": 5950,
  "▁del": 5951,
  "MT": 5952,
  "tting": 5953,
  "▁effectively": 5954,
  "▁identity": 5955,
  "▁Wa": 5956,
  "bus": 5957,
  "▁Martin": 5958,
  "▁input": 5959,
  "重点": 5960,
  "oriented": 5961,
  "▁improvement": 5962,
  "▁adults": 5963,
  "▁Bal": 5964,
  "那个": 5965,
  "▁garden": 5966,
  "▁dry": 5967,
  "必要": 5968,
  "OM": 5969,
  "specific": 5970,
  "▁courses": 5971,
  "页面": 5972,
  "temp": 5973,
  "▁award": 5974,
  "▁protected": 5975,
  "lt": 5976,
  "群体": 5977,
  "▁represents": 5978,
  "示": 5979,
  "about": 5980,
  "李": 5981,
  "site": 5982,
  "▁Czech": 5983,
  "zer": 5984,
  "owned": 5985,
  "▁financing": 5986,
  "tch": 5987,
  "▁Apple": 5988,
  "土著": 5989,
  "tus": 5990,
  "HP": 5991,
  "fla": 5992,
  "外部": 5993,
  "食物": 5994,
  "▁consumers": 5995,
  "FS": 5996,
  "▁Son": 5997,
  "▁Media": 5998,
  "的要求": 5999,
  "range": 6000,
  "▁Pakistan": 6001,
  "▁ended": 6002,
  "▁objective": 6003,
  "或其他": 6004,
  "承": 6005,
  "mod": 6006,
  "▁el": 6007,
  "roll": 6008,
  "▁arm": 6009,
  "▁vi": 6010,
  "onic": 6011,
  "▁Products": 6012,
  "▁indigenous": 6013,
  "▁如果你": 6014,
  "LO": 6015,
  "ret": 6016,
  "▁Ten": 6017,
  "▁mark": 6018,
  "▁hydro": 6019,
  "弹": 6020,
  "▁Best": 6021,
  "东西": 6022,
  "银": 6023,
  "跑": 6024,
  "active": 6025,
  "osis": 6026,
  "▁gain": 6027,
  "▁definition": 6028,
  "▁vast": 6029,
  "▁copy": 6030,
  "▁guidelines": 6031,
  "▁organic": 6032,
  "mount": 6033,
  "举办": 6034,
  "▁seek": 6035,
  "男性": 6036,
  "▁Friday": 6037,
  "▁fit": 6038,
  "▁biological": 6039,
  "出生": 6040,
  "▁gun": 6041,
  "cur": 6042,
  "翻译": 6043,
  "▁carrying": 6044,
  "▁losses": 6045,
  "chan": 6046,
  "▁AI": 6047,
  "适应": 6048,
  "▁evil": 6049,
  "的行为": 6050,
  "nas": 6051,
  "UM": 6052,
  "▁leaving": 6053,
  "▁signs": 6054,
  "▁concerns": 6055,
  "盛": 6056,
  "▁Prince": 6057,
  "电脑": 6058,
  "邀请": 6059,
  "▁beauty": 6060,
  "首先": 6061,
  "早期": 6062,
  "贡献": 6063,
  "rian": 6064,
  "▁replace": 6065,
  "▁supplies": 6066,
  "▁tradition": 6067,
  "▁Like": 6068,
  "ening": 6069,
  "ock": 6070,
  "诉": 6071,
  "Ch": 6072,
  "cin": 6073,
  "模块": 6074,
  "务": 6075,
  "降": 6076,
  "▁estimates": 6077,
  "有助于": 6078,
  "ira": 6079,
  "ls": 6080,
  "▁payments": 6081,
  "元素": 6082,
  "▁label": 6083,
  "▁Building": 6084,
  "标签": 6085,
  "▁Ye": 6086,
  "▁Hy": 6087,
  "▁division": 6088,
  "service": 6089,
  "包装": 6090,
  "▁Contact": 6091,
  "EF": 6092,
  "▁genetic": 6093,
  "char": 6094,
  "ture": 6095,
  "▁surrounding": 6096,
  "扩展": 6097,
  "超级": 6098,
  "▁advice": 6099,
  "另外": 6100,
  "的名字": 6101,
  "▁secondary": 6102,
  "▁investments": 6103,
  "观察": 6104,
  "▁piece": 6105,
  "nia": 6106,
  "▁ob": 6107,
  "韩国": 6108,
  "▁fighting": 6109,
  "▁unless": 6110,
  "igh": 6111,
  "ao": 6112,
  "秒": 6113,
  "▁supporting": 6114,
  "▁ball": 6115,
  "▁centers": 6116,
  "radi": 6117,
  "just": 6118,
  "▁obligations": 6119,
  "江": 6120,
  "gue": 6121,
  "履行": 6122,
  "黎巴嫩": 6123,
  "合法": 6124,
  "ved": 6125,
  "▁Auto": 6126,
  "lean": 6127,
  "事项": 6128,
  "▁cur": 6129,
  "AU": 6130,
  "▁Finland": 6131,
  "▁attended": 6132,
  "▁declared": 6133,
  "▁increases": 6134,
  "▁approval": 6135,
  "gal": 6136,
  "dies": 6137,
  "▁proposal": 6138,
  "▁bright": 6139,
  "rot": 6140,
  "▁Pri": 6141,
  "俱乐部": 6142,
  "▁Declaration": 6143,
  "▁agent": 6144,
  "pel": 6145,
  "▁western": 6146,
  "▁fruit": 6147,
  "▁IS": 6148,
  "quality": 6149,
  "列入": 6150,
  "▁Singapore": 6151,
  "ement": 6152,
  "太阳": 6153,
  "PU": 6154,
  "▁applicable": 6155,
  "▁Where": 6156,
  "▁defend": 6157,
  "▁除了": 6158,
  "▁walls": 6159,
  "国家的": 6160,
  "col": 6161,
  "撒": 6162,
  "接近": 6163,
  "ify": 6164,
  "▁profit": 6165,
  "该项目": 6166,
  "▁sand": 6167,
  "关闭": 6168,
  "▁suggested": 6169,
  "ific": 6170,
  "▁geo": 6171,
  "谢": 6172,
  "cker": 6173,
  "▁driving": 6174,
  "Gu": 6175,
  "替代": 6176,
  "▁connect": 6177,
  "摩": 6178,
  "▁indeed": 6179,
  "vision": 6180,
  "▁reducing": 6181,
  "nal": 6182,
  "略": 6183,
  "have": 6184,
  "load": 6185,
  "▁Chair": 6186,
  "▁deposit": 6187,
  "lation": 6188,
  "▁recognition": 6189,
  "▁gene": 6190,
  "mile": 6191,
  "▁MA": 6192,
  "味": 6193,
  "oli": 6194,
  "徒": 6195,
  "▁Mc": 6196,
  "lit": 6197,
  "智利": 6198,
  "%).": 6199,
  "▁ver": 6200,
  "实践": 6201,
  "换": 6202,
  "cen": 6203,
  "lis": 6204,
  "▁listed": 6205,
  "▁instrument": 6206,
  "hen": 6207,
  "▁Geneva": 6208,
  "▁Facebook": 6209,
  "利亚": 6210,
  "▁IV": 6211,
  "耐": 6212,
  "▁UNEP": 6213,
  "▁evening": 6214,
  "Per": 6215,
  "顶": 6216,
  "毒": 6217,
  "▁native": 6218,
  "智": 6219,
  "▁constant": 6220,
  "ages": 6221,
  "▁enemy": 6222,
  "tens": 6223,
  "▁Financial": 6224,
  "▁strategies": 6225,
  "▁resort": 6226,
  "最初": 6227,
  "▁driver": 6228,
  "gs": 6229,
  "▁certainly": 6230,
  "▁Engineering": 6231,
  "紧急": 6232,
  "▁centuries": 6233,
  "▁channel": 6234,
  "共享": 6235,
  "▁Mel": 6236,
  "mad": 6237,
  "▁reaction": 6238,
  "▁extreme": 6239,
  "▁participated": 6240,
  "议程": 6241,
  "▁translation": 6242,
  "▁teams": 6243,
  "年至": 6244,
  "Jo": 6245,
  "有时": 6246,
  "▁college": 6247,
  "气候": 6248,
  "ened": 6249,
  "ics": 6250,
  "巴黎": 6251,
  "▁Char": 6252,
  "▁Take": 6253,
  "▁salt": 6254,
  "▁orders": 6255,
  "ENT": 6256,
  "▁massive": 6257,
  "▁Father": 6258,
  "pm": 6259,
  "▁Monday": 6260,
  "寻求": 6261,
  "▁dance": 6262,
  "糖": 6263,
  "nn": 6264,
  "▁changing": 6265,
  "优势": 6266,
  "跨": 6267,
  "▁Mas": 6268,
  "WA": 6269,
  "支出": 6270,
  "lie": 6271,
  "any": 6272,
  "▁collect": 6273,
  "末": 6274,
  "众": 6275,
  "▁awareness": 6276,
  "chen": 6277,
  "领导人": 6278,
  "▁Jerusalem": 6279,
  "伙伴": 6280,
  "LD": 6281,
  "▁extended": 6282,
  "anti": 6283,
  "▁discuss": 6284,
  "▁BE": 6285,
  "也许": 6286,
  "▁journey": 6287,
  "使得": 6288,
  "▁tour": 6289,
  "伙伴关系": 6290,
  "男人": 6291,
  "care": 6292,
  "nit": 6293,
  "如果你": 6294,
  "迈": 6295,
  "ima": 6296,
  "最新": 6297,
  "CL": 6298,
  "在第": 6299,
  "▁Sir": 6300,
  "▁introduction": 6301,
  "▁cm": 6302,
  "▁自": 6303,
  "▁refer": 6304,
  "▁technological": 6305,
  "▁dialogue": 6306,
  "▁feeling": 6307,
  "ith": 6308,
  "有可能": 6309,
  "艺术家": 6310,
  "▁Maria": 6311,
  "▁Letter": 6312,
  "的小": 6313,
  "ulation": 6314,
  "▁rapid": 6315,
  "▁coal": 6316,
  "粉": 6317,
  "▁moral": 6318,
  "监狱": 6319,
  "▁Ivan": 6320,
  "▁invited": 6321,
  "探索": 6322,
  "bel": 6323,
  "vert": 6324,
  "文章": 6325,
  "▁milk": 6326,
  "歌": 6327,
  "▁Ban": 6328,
  "▁increasingly": 6329,
  "▁humanitarian": 6330,
  "他是": 6331,
  "▁prepare": 6332,
  "的技术": 6333,
  "▁specialized": 6334,
  "绿色": 6335,
  "▁Micro": 6336,
  "los": 6337,
  "永久": 6338,
  "duction": 6339,
  "foot": 6340,
  "移": 6341,
  "剧": 6342,
  "▁branch": 6343,
  "工艺": 6344,
  "▁restaurant": 6345,
  "平衡": 6346,
  "▁pe": 6347,
  "▁operate": 6348,
  "▁import": 6349,
  "▁leads": 6350,
  "pers": 6351,
  "许可": 6352,
  "总是": 6353,
  "发挥": 6354,
  "▁contrast": 6355,
  "▁generated": 6356,
  "▁Norway": 6357,
  "▁bottom": 6358,
  "▁outstanding": 6359,
  "▁Before": 6360,
  "▁guarantee": 6361,
  "▁risks": 6362,
  "▁LLC": 6363,
  "BR": 6364,
  "侧": 6365,
  "出版": 6366,
  "▁Kam": 6367,
  "▁Kiev": 6368,
  "娱乐": 6369,
  "意味着": 6370,
  "▁Local": 6371,
  "四个": 6372,
  "▁Abu": 6373,
  "ax": 6374,
  "rant": 6375,
  "Ar": 6376,
  "vet": 6377,
  "▁项目": 6378,
  "▁Pra": 6379,
  "▁Club": 6380,
  "以后": 6381,
  "历": 6382,
  "▁Zealand": 6383,
  "个月": 6384,
  "▁extension": 6385,
  "▁Sar": 6386,
  "▁farm": 6387,
  "▁Bureau": 6388,
  "▁Mary": 6389,
  "▁homes": 6390,
  "▁experiences": 6391,
  "▁Criminal": 6392,
  "▁index": 6393,
  "一下": 6394,
  "gent": 6395,
  "▁residence": 6396,
  "经费": 6397,
  "酷刑": 6398,
  "▁Standard": 6399,
  "Dec": 6400,
  "各项": 6401,
  "▁Yes": 6402,
  "▁emissions": 6403,
  "ome": 6404,
  "▁commitment": 6405,
  "▁Catholic": 6406,
  "▁rain": 6407,
  "▁sugar": 6408,
  "获得了": 6409,
  "▁destruction": 6410,
  "▁Ana": 6411,
  "女人": 6412,
  "▁Real": 6413,
  "Mu": 6414,
  "晚": 6415,
  "▁Indonesia": 6416,
  "ean": 6417,
  "男": 6418,
  "ography": 6419,
  "▁linked": 6420,
  "▁printing": 6421,
  "▁Those": 6422,
  "EV": 6423,
  "▁register": 6424,
  "Fa": 6425,
  "NGO": 6426,
  "FCCC": 6427,
  "NC": 6428,
  "HS": 6429,
  "一定": 6430,
  "▁transferred": 6431,
  "总部": 6432,
  "卫": 6433,
  "的国际": 6434,
  "▁Tre": 6435,
  "准": 6436,
  "eri": 6437,
  "atory": 6438,
  "▁Ocean": 6439,
  "▁collected": 6440,
  "▁sets": 6441,
  "▁pair": 6442,
  "ball": 6443,
  "▁twice": 6444,
  "只要": 6445,
  "匈牙利": 6446,
  "▁Tom": 6447,
  "相互": 6448,
  "定期": 6449,
  "▁而": 6450,
  "▁LED": 6451,
  "辛": 6452,
  "困难": 6453,
  "▁coordination": 6454,
  "▁updated": 6455,
  "▁Family": 6456,
  "▁Gor": 6457,
  "▁temple": 6458,
  "ways": 6459,
  "和第": 6460,
  "ori": 6461,
  "Mi": 6462,
  "▁Cre": 6463,
  "▁peak": 6464,
  "▁Yo": 6465,
  "▁portion": 6466,
  "▁speaking": 6467,
  "▁SA": 6468,
  "增加了": 6469,
  "sub": 6470,
  "▁guidance": 6471,
  "议定书": 6472,
  "tract": 6473,
  "▁Tar": 6474,
  "far": 6475,
  "只能": 6476,
  "▁quick": 6477,
  "▁audience": 6478,
  "▁accommodation": 6479,
  "大小": 6480,
  "园": 6481,
  "▁wait": 6482,
  "▁Sunday": 6483,
  "▁Kur": 6484,
  "▁prefer": 6485,
  "久": 6486,
  "gov": 6487,
  "▁automatic": 6488,
  "▁priority": 6489,
  "销": 6490,
  "cro": 6491,
  "▁tend": 6492,
  "▁radiation": 6493,
  "取消": 6494,
  "pol": 6495,
  "取代": 6496,
  "仪": 6497,
  "ult": 6498,
  "▁edge": 6499,
  "▁challenge": 6500,
  "▁Supreme": 6501,
  "▁taste": 6502,
  "▁shop": 6503,
  "spect": 6504,
  "▁silver": 6505,
  "verse": 6506,
  "▁Despite": 6507,
  "▁eastern": 6508,
  "▁window": 6509,
  "创": 6510,
  "▁failed": 6511,
  "▁Thailand": 6512,
  "▁sin": 6513,
  "▁closely": 6514,
  "暴": 6515,
  "ora": 6516,
  "sar": 6517,
  "▁stability": 6518,
  "投入": 6519,
  "▁Tax": 6520,
  "事实": 6521,
  "▁decline": 6522,
  "rus": 6523,
  "▁talking": 6524,
  "zu": 6525,
  "青": 6526,
  "elle": 6527,
  "▁Polish": 6528,
  "新西兰": 6529,
  "▁CH": 6530,
  "第三方": 6531,
  "规范": 6532,
  "▁virtual": 6533,
  "名单": 6534,
  "adi": 6535,
  "▁gone": 6536,
  "mag": 6537,
  "town": 6538,
  "ford": 6539,
  "▁letters": 6540,
  "相同": 6541,
  "▁impossible": 6542,
  "▁extensive": 6543,
  "▁granted": 6544,
  "▁nano": 6545,
  "的生活": 6546,
  "til": 6547,
  "oid": 6548,
  "esh": 6549,
  "免": 6550,
  "rag": 6551,
  "▁capabilities": 6552,
  "row": 6553,
  "望": 6554,
  "▁stories": 6555,
  "▁removed": 6556,
  "内的": 6557,
  "▁faster": 6558,
  "脱": 6559,
  "事情": 6560,
  "▁expensive": 6561,
  "用途": 6562,
  "液": 6563,
  "ien": 6564,
  "▁depending": 6565,
  "▁neuro": 6566,
  "▁History": 6567,
  "▁elected": 6568,
  "▁newly": 6569,
  "▁Pat": 6570,
  "PD": 6571,
  "▁mechanical": 6572,
  "发动机": 6573,
  "删除": 6574,
  "指定": 6575,
  "▁Top": 6576,
  "局势": 6577,
  "▁Americans": 6578,
  "IG": 6579,
  "亦": 6580,
  "There": 6581,
  "TP": 6582,
  "▁acquisition": 6583,
  "▁recognize": 6584,
  "▁Ol": 6585,
  "▁ordinary": 6586,
  "▁knows": 6587,
  "rm": 6588,
  "now": 6589,
  "▁transactions": 6590,
  "▁myself": 6591,
  "枪": 6592,
  "努": 6593,
  "print": 6594,
  "ges": 6595,
  "特征": 6596,
  "跳": 6597,
  "ctor": 6598,
  "掉": 6599,
  "▁accurate": 6600,
  "▁Systems": 6601,
  "▁advertising": 6602,
  "▁expand": 6603,
  "初": 6604,
  "▁perspective": 6605,
  "PM": 6606,
  "▁recovery": 6607,
  "▁Hospital": 6608,
  "▁grew": 6609,
  "wide": 6610,
  "▁involving": 6611,
  "蛋白": 6612,
  "UC": 6613,
  "▁manufacturers": 6614,
  "尼亚": 6615,
  "▁association": 6616,
  "尺寸": 6617,
  "▁wild": 6618,
  "rah": 6619,
  "▁millions": 6620,
  "▁Dar": 6621,
  "▁degrees": 6622,
  "的作用": 6623,
  "▁treated": 6624,
  "物理": 6625,
  "可持续": 6626,
  "就会": 6627,
  "▁feed": 6628,
  "▁snow": 6629,
  "tag": 6630,
  "她们": 6631,
  "▁联合国": 6632,
  "▁initiatives": 6633,
  "qual": 6634,
  "▁receiving": 6635,
  "上海": 6636,
  "▁resolutions": 6637,
  "在这个": 6638,
  "Bu": 6639,
  "尊重": 6640,
  "makers": 6641,
  "第六": 6642,
  "NY": 6643,
  "▁vessels": 6644,
  "▁Officer": 6645,
  "▁Ham": 6646,
  "▁entities": 6647,
  "tre": 6648,
  "月份": 6649,
  "fold": 6650,
  "不到": 6651,
  "科威特": 6652,
  "▁layer": 6653,
  "回顾": 6654,
  "system": 6655,
  "▁decade": 6656,
  "会员国": 6657,
  "季": 6658,
  "olo": 6659,
  "▁fifty": 6660,
  "▁error": 6661,
  "ava": 6662,
  "理由": 6663,
  "▁false": 6664,
  "参考": 6665,
  "管制": 6666,
  "hai": 6667,
  "▁strengthening": 6668,
  "损害": 6669,
  "右": 6670,
  "struct": 6671,
  "rated": 6672,
  "▁happen": 6673,
  "审计": 6674,
  "vol": 6675,
  "年以来": 6676,
  "▁sectors": 6677,
  "规定的": 6678,
  "的大": 6679,
  "肯": 6680,
  "▁alcohol": 6681,
  "性和": 6682,
  "哪": 6683,
  "▁sit": 6684,
  "左": 6685,
  "▁Australian": 6686,
  "Su": 6687,
  "▁Ger": 6688,
  "▁Col": 6689,
  "▁MO": 6690,
  "▁wealth": 6691,
  "电力": 6692,
  "▁Commissioner": 6693,
  "where": 6694,
  "探": 6695,
  "▁manufacture": 6696,
  "▁pieces": 6697,
  "▁links": 6698,
  "▁mountains": 6699,
  "▁villages": 6700,
  "考": 6701,
  "▁Gold": 6702,
  "▁Hill": 6703,
  "▁blog": 6704,
  "▁Once": 6705,
  "▁Cap": 6706,
  "息": 6707,
  "通讯": 6708,
  "▁sport": 6709,
  "▁explain": 6710,
  "▁crew": 6711,
  "做法": 6712,
  "▁kids": 6713,
  "▁upper": 6714,
  "band": 6715,
  "▁relationships": 6716,
  "在此": 6717,
  "▁sides": 6718,
  "▁duty": 6719,
  "▁sister": 6720,
  "▁DE": 6721,
  "尼日利亚": 6722,
  "命": 6723,
  "北部": 6724,
  "投资者": 6725,
  "his": 6726,
  "ending": 6727,
  "▁Culture": 6728,
  "▁reflect": 6729,
  "eli": 6730,
  "▁originally": 6731,
  "传输": 6732,
  "▁entirely": 6733,
  "房间": 6734,
  "特性": 6735,
  "▁compliance": 6736,
  "▁representing": 6737,
  "优": 6738,
  "▁truly": 6739,
  "▁j": 6740,
  "▁landscape": 6741,
  "▁ordered": 6742,
  "human": 6743,
  "ech": 6744,
  "▁terrorist": 6745,
  "发出": 6746,
  "Go": 6747,
  "▁ski": 6748,
  "ew": 6749,
  "日的": 6750,
  "What": 6751,
  "隆": 6752,
  "▁automatically": 6753,
  "选项": 6754,
  "舍": 6755,
  "工程师": 6756,
  "塑料": 6757,
  "rit": 6758,
  "logical": 6759,
  "▁authors": 6760,
  "CF": 6761,
  "英里": 6762,
  "▁opposition": 6763,
  "tent": 6764,
  "east": 6765,
  "惠": 6766,
  "▁download": 6767,
  "▁literature": 6768,
  "圈": 6769,
  "境": 6770,
  "Ne": 6771,
  "▁Environmental": 6772,
  "学家": 6773,
  "AV": 6774,
  "并将": 6775,
  "固": 6776,
  "▁Uzbekistan": 6777,
  "▁cast": 6778,
  "滑": 6779,
  "▁typical": 6780,
  "▁cable": 6781,
  "ound": 6782,
  "graphic": 6783,
  "▁household": 6784,
  "测": 6785,
  "化的": 6786,
  "▁submit": 6787,
  "▁manufacturer": 6788,
  "▁inhabitants": 6789,
  "障碍": 6790,
  "茶": 6791,
  "相当": 6792,
  "BO": 6793,
  "▁ho": 6794,
  "Th": 6795,
  "chin": 6796,
  "bre": 6797,
  "▁SU": 6798,
  "only": 6799,
  "▁typically": 6800,
  "dd": 6801,
  "▁Empire": 6802,
  "待": 6803,
  "分发": 6804,
  "也有": 6805,
  "mur": 6806,
  "狗": 6807,
  "▁contracts": 6808,
  "chu": 6809,
  "▁founder": 6810,
  "宁": 6811,
  "▁depth": 6812,
  "▁List": 6813,
  "方便": 6814,
  "▁ME": 6815,
  "▁Az": 6816,
  "▁concluded": 6817,
  "▁promoting": 6818,
  "此类": 6819,
  "乔": 6820,
  "▁Iranian": 6821,
  "保存": 6822,
  "独": 6823,
  "害": 6824,
  "优化": 6825,
  "绝": 6826,
  "▁prove": 6827,
  "▁committee": 6828,
  "录": 6829,
  "▁Islands": 6830,
  "jan": 6831,
  "制订": 6832,
  "▁tourism": 6833,
  "▁comparison": 6834,
  "▁Berlin": 6835,
  "there": 6836,
  "▁characters": 6837,
  "tribut": 6838,
  "tas": 6839,
  "连续": 6840,
  "aire": 6841,
  "ident": 6842,
  "http": 6843,
  "▁Moreover": 6844,
  "▁panel": 6845,
  "指示": 6846,
  "▁Mil": 6847,
  "▁Fre": 6848,
  "▁largely": 6849,
  "▁Vis": 6850,
  "教师": 6851,
  "礼": 6852,
  "zen": 6853,
  "▁Video": 6854,
  "▁Os": 6855,
  "LC": 6856,
  "▁finished": 6857,
  "▁trend": 6858,
  "▁writer": 6859,
  "交换": 6860,
  "本地": 6861,
  "ux": 6862,
  "铁路": 6863,
  "实行": 6864,
  "▁custom": 6865,
  "尝试": 6866,
  "组织的": 6867,
  "回到": 6868,
  "self": 6869,
  "若干": 6870,
  "▁forum": 6871,
  "的内容": 6872,
  "sia": 6873,
  "▁distributed": 6874,
  "简": 6875,
  "▁missions": 6876,
  "蓝": 6877,
  "气候变化": 6878,
  "una": 6879,
  "how": 6880,
  "sol": 6881,
  "付": 6882,
  "残疾人": 6883,
  "▁Training": 6884,
  "▁bought": 6885,
  "完": 6886,
  "FO": 6887,
  "inal": 6888,
  "▁foundation": 6889,
  "▁Studies": 6890,
  "刻": 6891,
  "PER": 6892,
  "▁Bor": 6893,
  "卖": 6894,
  "到达": 6895,
  "▁producing": 6896,
  "▁Journal": 6897,
  "叙利亚": 6898,
  "acy": 6899,
  "▁sample": 6900,
  "▁discrimination": 6901,
  "▁inspection": 6902,
  "添加": 6903,
  "并没有": 6904,
  "kha": 6905,
  "▁giant": 6906,
  "依照": 6907,
  "▁Tur": 6908,
  "▁Safety": 6909,
  "▁VI": 6910,
  "▁suggest": 6911,
  "硬": 6912,
  "para": 6913,
  "清单": 6914,
  "▁expenses": 6915,
  "IB": 6916,
  "▁furniture": 6917,
  "NO": 6918,
  "▁Dutch": 6919,
  "▁Music": 6920,
  "菌": 6921,
  "insky": 6922,
  "▁plus": 6923,
  "▁mg": 6924,
  "▁Cyprus": 6925,
  "LS": 6926,
  "▁commission": 6927,
  "▁unknown": 6928,
  "宫": 6929,
  "弱": 6930,
  "other": 6931,
  "▁dynamic": 6932,
  "▁philosophy": 6933,
  "面积": 6934,
  "回答": 6935,
  "dor": 6936,
  "图片": 6937,
  "墙": 6938,
  "不得": 6939,
  "▁fifth": 6940,
  "▁audit": 6941,
  "▁anniversary": 6942,
  "▁Investment": 6943,
  "ui": 6944,
  "ire": 6945,
  "▁license": 6946,
  "▁Kal": 6947,
  "因为它": 6948,
  "habit": 6949,
  "▁Third": 6950,
  "ym": 6951,
  "▁rent": 6952,
  "▁heads": 6953,
  "action": 6954,
  "sized": 6955,
  "▁tele": 6956,
  "贫困": 6957,
  "餐": 6958,
  "▁William": 6959,
  "▁experiment": 6960,
  "▁killing": 6961,
  "母亲": 6962,
  "▁Treaty": 6963,
  "GE": 6964,
  "hold": 6965,
  "现场": 6966,
  "fully": 6967,
  "▁corner": 6968,
  "▁passengers": 6969,
  "输出": 6970,
  "住宿": 6971,
  "▁destroy": 6972,
  "修正": 6973,
  "▁@": 6974,
  "大家": 6975,
  "▁relative": 6976,
  "▁heaven": 6977,
  "▁laboratory": 6978,
  "上升": 6979,
  "▁mining": 6980,
  "▁Province": 6981,
  "▁PR": 6982,
  "▁implementing": 6983,
  "▁powers": 6984,
  "男子": 6985,
  "cons": 6986,
  "投票": 6987,
  "雨": 6988,
  "▁functional": 6989,
  "▁handle": 6990,
  "▁Big": 6991,
  "遭受": 6992,
  "▁comment": 6993,
  "氏": 6994,
  "举": 6995,
  "▁technique": 6996,
  "▁count": 6997,
  "tics": 6998,
  "▁这种": 6999,
  "▁recommend": 7000,
  "▁supports": 7001,
  "stra": 7002,
  "▁charges": 7003,
  "TU": 7004,
  "cry": 7005,
  "▁Wall": 7006,
  "▁fiber": 7007,
  "模拟": 7008,
  "million": 7009,
  "》。": 7010,
  "ART": 7011,
  "▁neither": 7012,
  "SF": 7013,
  "▁artificial": 7014,
  "Lo": 7015,
  "My": 7016,
  "▁Corporation": 7017,
  "户": 7018,
  "▁covers": 7019,
  "资助": 7020,
  "益": 7021,
  "地图": 7022,
  "▁Swiss": 7023,
  "▁Fire": 7024,
  "▁wonder": 7025,
  "▁grand": 7026,
  "▁kitchen": 7027,
  "也不": 7028,
  "▁retail": 7029,
  "▁switch": 7030,
  "▁situated": 7031,
  "ides": 7032,
  "维也纳": 7033,
  "▁library": 7034,
  "使其": 7035,
  "▁debate": 7036,
  "急": 7037,
  "rev": 7038,
  "运作": 7039,
  "太平洋": 7040,
  "为此": 7041,
  "▁raw": 7042,
  "nor": 7043,
  "▁subsequent": 7044,
  "vit": 7045,
  "法案": 7046,
  "▁seat": 7047,
  "在内的": 7048,
  "种族": 7049,
  "▁evolution": 7050,
  "塞浦路斯": 7051,
  "▁occupied": 7052,
  "▁Ur": 7053,
  "ional": 7054,
  "bay": 7055,
  "国际法": 7056,
  "▁sight": 7057,
  "rr": 7058,
  "▁Canadian": 7059,
  "▁Festival": 7060,
  "通过的": 7061,
  "▁discover": 7062,
  "营销": 7063,
  "▁acquired": 7064,
  "▁institution": 7065,
  "▁confirm": 7066,
  "公平": 7067,
  "late": 7068,
  "穆斯林": 7069,
  "▁peoples": 7070,
  "▁da": 7071,
  "▁cargo": 7072,
  "的一些": 7073,
  "▁governments": 7074,
  "ular": 7075,
  "pic": 7076,
  "意义": 7077,
  "宗": 7078,
  "艾滋病毒": 7079,
  "夏": 7080,
  "▁Bill": 7081,
  "eller": 7082,
  "▁Finance": 7083,
  "Ko": 7084,
  "发行": 7085,
  "▁comfortable": 7086,
  "▁mouth": 7087,
  "能量": 7088,
  "▁magazine": 7089,
  "圆": 7090,
  "容易": 7091,
  "▁Southern": 7092,
  "的文件": 7093,
  "的决定": 7094,
  "观": 7095,
  "▁Him": 7096,
  "项目的": 7097,
  "▁examination": 7098,
  "道德": 7099,
  "▁chapter": 7100,
  "预期": 7101,
  "zhou": 7102,
  "▁Cross": 7103,
  "坦": 7104,
  "英文": 7105,
  "▁proper": 7106,
  "贾": 7107,
  "▁chair": 7108,
  "link": 7109,
  "▁respond": 7110,
  "动力": 7111,
  "纯": 7112,
  "贷款": 7113,
  "▁Kim": 7114,
  "▁Machine": 7115,
  "American": 7116,
  "两年期": 7117,
  "▁seemed": 7118,
  "小组委员会": 7119,
  "▁col": 7120,
  "▁League": 7121,
  "▁tank": 7122,
  "Li": 7123,
  "打开": 7124,
  "▁sufficient": 7125,
  "RP": 7126,
  "▁Putin": 7127,
  "▁corresponding": 7128,
  "▁sentence": 7129,
  "itch": 7130,
  "oi": 7131,
  "后的": 7132,
  "▁monthly": 7133,
  "最低": 7134,
  "链接": 7135,
  "▁pump": 7136,
  "▁consent": 7137,
  "▁journal": 7138,
  "▁bomb": 7139,
  "▁whatever": 7140,
  "用来": 7141,
  "▁attend": 7142,
  "ald": 7143,
  "rel": 7144,
  "▁forth": 7145,
  "纪念": 7146,
  "▁Online": 7147,
  "▁telephone": 7148,
  "▁exception": 7149,
  "▁Anna": 7150,
  "▁privacy": 7151,
  "资": 7152,
  "▁Beach": 7153,
  "date": 7154,
  "▁slightly": 7155,
  "▁independence": 7156,
  "▁agriculture": 7157,
  "▁formal": 7158,
  "▁Islam": 7159,
  "lets": 7160,
  "比例": 7161,
  "权力": 7162,
  "▁Pass": 7163,
  "欧洲联盟": 7164,
  "有权": 7165,
  "▁calling": 7166,
  "mus": 7167,
  "▁arrival": 7168,
  "China": 7169,
  "▁concentration": 7170,
  "face": 7171,
  "▁painting": 7172,
  "EE": 7173,
  "▁gets": 7174,
  "ust": 7175,
  "行动计划": 7176,
  "▁showing": 7177,
  "二十": 7178,
  "▁Both": 7179,
  "的资料": 7180,
  "▁owned": 7181,
  "持": 7182,
  "uv": 7183,
  "私": 7184,
  "集中": 7185,
  "lum": 7186,
  "▁ON": 7187,
  "market": 7188,
  "▁interior": 7189,
  "▁Mad": 7190,
  "▁meta": 7191,
  "pat": 7192,
  "tail": 7193,
  "▁Ly": 7194,
  "故": 7195,
  "▁requests": 7196,
  "商店": 7197,
  "尚未": 7198,
  "stru": 7199,
  "▁ensuring": 7200,
  "▁Arm": 7201,
  "影": 7202,
  "▁metres": 7203,
  "是一家": 7204,
  "▁Camp": 7205,
  "信仰": 7206,
  "▁Kor": 7207,
  "所述": 7208,
  "所需的": 7209,
  "▁audio": 7210,
  "bs": 7211,
  "▁commander": 7212,
  "临": 7213,
  "▁Max": 7214,
  "▁Romania": 7215,
  "▁covering": 7216,
  "pot": 7217,
  "遭到": 7218,
  "▁cutting": 7219,
  "▁wave": 7220,
  "Sh": 7221,
  "长的": 7222,
  "侵犯": 7223,
  "▁Child": 7224,
  "▁Il": 7225,
  "▁refugees": 7226,
  "▁consequences": 7227,
  "▁Mur": 7228,
  "▁Tal": 7229,
  "▁pure": 7230,
  "升级": 7231,
  "承担": 7232,
  "stat": 7233,
  "▁Fu": 7234,
  "Pe": 7235,
  "Br": 7236,
  "real": 7237,
  "ele": 7238,
  "▁pattern": 7239,
  "LI": 7240,
  "越来越": 7241,
  "罗马尼亚": 7242,
  "▁Self": 7243,
  "▁examples": 7244,
  "ches": 7245,
  "–": 7246,
  "▁consciousness": 7247,
  "uh": 7248,
  "▁occurs": 7249,
  "ically": 7250,
  "海滩": 7251,
  "我们将": 7252,
  "兄弟": 7253,
  "▁tonnes": 7254,
  "▁fill": 7255,
  "▁differences": 7256,
  "▁principal": 7257,
  "固定": 7258,
  "▁Taiwan": 7259,
  "声称": 7260,
  "电子邮件": 7261,
  "▁till": 7262,
  "▁lake": 7263,
  "流程": 7264,
  "III": 7265,
  "▁spot": 7266,
  "▁新": 7267,
  "lim": 7268,
  "往往": 7269,
  "准确": 7270,
  "▁crimes": 7271,
  "▁Town": 7272,
  "▁paras": 7273,
  "委": 7274,
  "▁Cultural": 7275,
  "▁SE": 7276,
  "▁Scientific": 7277,
  "ila": 7278,
  "相同的": 7279,
  "禁": 7280,
  "▁Ci": 7281,
  "观察员": 7282,
  "IX": 7283,
  "▁contemporary": 7284,
  "▁Zi": 7285,
  "▁Para": 7286,
  "sign": 7287,
  "▁circuit": 7288,
  "▁hearing": 7289,
  "▁meant": 7290,
  "body": 7291,
  "▁stages": 7292,
  "▁substance": 7293,
  "污染": 7294,
  "▁engineer": 7295,
  "▁Legal": 7296,
  "▁reserves": 7297,
  "tric": 7298,
  "全世界": 7299,
  "▁filter": 7300,
  "ily": 7301,
  "加以": 7302,
  "pper": 7303,
  "依据": 7304,
  "打印": 7305,
  "▁aware": 7306,
  "▁easier": 7307,
  "him": 7308,
  "证据": 7309,
  "bol": 7310,
  "▁另外": 7311,
  "边界": 7312,
  "▁prize": 7313,
  "▁fellow": 7314,
  "一级": 7315,
  "AA": 7316,
  "一场": 7317,
  "Com": 7318,
  "tam": 7319,
  "▁gap": 7320,
  "▁scar": 7321,
  "pon": 7322,
  "等等": 7323,
  "秘鲁": 7324,
  "不知道": 7325,
  "nis": 7326,
  "▁films": 7327,
  "cast": 7328,
  "▁frame": 7329,
  "▁Gri": 7330,
  "认可": 7331,
  "▁situations": 7332,
  "炮": 7333,
  "rush": 7334,
  "lev": 7335,
  "▁fe": 7336,
  "癌症": 7337,
  "细": 7338,
  "容": 7339,
  "的重要": 7340,
  "偏": 7341,
  "▁doctors": 7342,
  "都会": 7343,
  "世界上": 7344,
  "▁plot": 7345,
  "标志": 7346,
  "类型的": 7347,
  "阻": 7348,
  "▁concrete": 7349,
  "▁enforcement": 7350,
  "美洲": 7351,
  "通用": 7352,
  "自动化": 7353,
  "ature": 7354,
  "Si": 7355,
  "world": 7356,
  "▁missile": 7357,
  "休": 7358,
  "ela": 7359,
  "rig": 7360,
  "minute": 7361,
  "▁forecast": 7362,
  "first": 7363,
  "▁hardware": 7364,
  "▁Sc": 7365,
  "▁roof": 7366,
  "▁BC": 7367,
  "▁begins": 7368,
  "▁Thomas": 7369,
  "▁Us": 7370,
  "GS": 7371,
  "随着": 7372,
  "▁Vienna": 7373,
  "▁believes": 7374,
  "▁universities": 7375,
  "▁spoke": 7376,
  "祖": 7377,
  "▁Microsoft": 7378,
  "烟": 7379,
  "▁rapidly": 7380,
  "瓶": 7381,
  "▁trouble": 7382,
  "▁harm": 7383,
  "道路": 7384,
  "▁Shu": 7385,
  "▁suffering": 7386,
  "ees": 7387,
  "永": 7388,
  "苹果": 7389,
  "批": 7390,
  "▁Sri": 7391,
  "▁marine": 7392,
  "列表": 7393,
  "▁Natural": 7394,
  "▁Arabia": 7395,
  "阿塞拜疆": 7396,
  "将于": 7397,
  "网页": 7398,
  "的机会": 7399,
  "露": 7400,
  "▁football": 7401,
  "second": 7402,
  "▁Rus": 7403,
  "▁pl": 7404,
  "een": 7405,
  "ural": 7406,
  "▁cat": 7407,
  "尚": 7408,
  "▁Blue": 7409,
  "FE": 7410,
  "帐户": 7411,
  "tai": 7412,
  "▁resulted": 7413,
  "▁Mak": 7414,
  "怎么": 7415,
  "人道主义": 7416,
  "mate": 7417,
  "▁expenditure": 7418,
  "▁dress": 7419,
  "▁Kara": 7420,
  "aria": 7421,
  "拜": 7422,
  "广场": 7423,
  "▁Cu": 7424,
  "▁County": 7425,
  "▁fabric": 7426,
  "▁findings": 7427,
  "我想": 7428,
  "nom": 7429,
  "▁ye": 7430,
  "▁owners": 7431,
  "▁Sur": 7432,
  "▁Bat": 7433,
  "▁Es": 7434,
  "▁GDP": 7435,
  "ounce": 7436,
  "▁Political": 7437,
  "RM": 7438,
  "main": 7439,
  "脑": 7440,
  "▁favorite": 7441,
  "必要的": 7442,
  "▁terminal": 7443,
  "▁所以": 7444,
  "破": 7445,
  "▁finding": 7446,
  "▁professionals": 7447,
  "▁continuous": 7448,
  "IE": 7449,
  "▁motion": 7450,
  "▁headed": 7451,
  "的需求": 7452,
  "▁suggests": 7453,
  "▁Address": 7454,
  "fr": 7455,
  "▁Award": 7456,
  "▁detail": 7457,
  "▁narrow": 7458,
  "▁interaction": 7459,
  "hur": 7460,
  "▁USSR": 7461,
  "▁locations": 7462,
  "▁directed": 7463,
  "有效的": 7464,
  "▁judge": 7465,
  "▁bear": 7466,
  "vari": 7467,
  "提及": 7468,
  "TT": 7469,
  "宇宙": 7470,
  "phone": 7471,
  "▁Radio": 7472,
  "警": 7473,
  "▁Arts": 7474,
  "pul": 7475,
  "▁explore": 7476,
  "▁Chu": 7477,
  "MAN": 7478,
  "shin": 7479,
  "▁Ob": 7480,
  "▁streets": 7481,
  "oni": 7482,
  "心理": 7483,
  "vir": 7484,
  "▁charged": 7485,
  "anger": 7486,
  "yard": 7487,
  "喷": 7488,
  "say": 7489,
  "▁oldest": 7490,
  "神经": 7491,
  "cel": 7492,
  "▁lift": 7493,
  "生成": 7494,
  "▁danger": 7495,
  "如今": 7496,
  "tress": 7497,
  "▁Win": 7498,
  "lia": 7499,
  "▁helping": 7500,
  "▁scene": 7501,
  "HR": 7502,
  "爆炸": 7503,
  "▁emotional": 7504,
  "这次": 7505,
  "值得": 7506,
  "▁Cam": 7507,
  "▁moon": 7508,
  "▁pursuant": 7509,
  "▁taught": 7510,
  "▁gr": 7511,
  "▁standing": 7512,
  "的目标": 7513,
  "维尔": 7514,
  "▁prayer": 7515,
  "▁Gas": 7516,
  "▁Official": 7517,
  "桥": 7518,
  "刑事": 7519,
  "篇": 7520,
  "cat": 7521,
  "fect": 7522,
  "▁god": 7523,
  "MR": 7524,
  "▁Mari": 7525,
  "ony": 7526,
  "沉": 7527,
  "指数": 7528,
  "posed": 7529,
  "谈": 7530,
  "arm": 7531,
  "▁worship": 7532,
  "▁visits": 7533,
  "函数": 7534,
  "▁plane": 7535,
  "▁Following": 7536,
  "shaped": 7537,
  "▁tested": 7538,
  "rey": 7539,
  "的代表": 7540,
  "是什么": 7541,
  "坐": 7542,
  "每一个": 7543,
  "和国际": 7544,
  "仲裁": 7545,
  "▁Ambassador": 7546,
  "发生的": 7547,
  "▁engines": 7548,
  "的事情": 7549,
  "▁passenger": 7550,
  "cia": 7551,
  "▁flag": 7552,
  "软": 7553,
  "尤": 7554,
  "kt": 7555,
  "▁Eco": 7556,
  "lies": 7557,
  "▁SP": 7558,
  "tions": 7559,
  "▁fee": 7560,
  "rak": 7561,
  "ikh": 7562,
  "▁epi": 7563,
  "▁profile": 7564,
  "冲": 7565,
  "治": 7566,
  "但在": 7567,
  "隔": 7568,
  "▁fishing": 7569,
  "▁Test": 7570,
  "摩洛哥": 7571,
  "▁specialists": 7572,
  "之中": 7573,
  "下来": 7574,
  "▁shopping": 7575,
  "▁straight": 7576,
  "▁chosen": 7577,
  "诉讼": 7578,
  "▁outcome": 7579,
  "须": 7580,
  "▁indicate": 7581,
  "OK": 7582,
  "ben": 7583,
  "武装": 7584,
  "RU": 7585,
  "提议": 7586,
  "ERS": 7587,
  "导弹": 7588,
  "▁serving": 7589,
  "DO": 7590,
  "WS": 7591,
  "▁torture": 7592,
  "展览": 7593,
  "▁Key": 7594,
  "▁Ts": 7595,
  "排放": 7596,
  "TB": 7597,
  "大使": 7598,
  "▁filled": 7599,
  "拘留": 7600,
  "▁opposite": 7601,
  "可在": 7602,
  "▁aims": 7603,
  "克罗地亚": 7604,
  "▁EN": 7605,
  "▁Table": 7606,
  "▁actively": 7607,
  "辆": 7608,
  "hon": 7609,
  "▁psycho": 7610,
  "DB": 7611,
  "▁newspaper": 7612,
  "步骤": 7613,
  "宾": 7614,
  "了一": 7615,
  "▁classic": 7616,
  "兴": 7617,
  "贝尔": 7618,
  "婚": 7619,
  "▁yield": 7620,
  "▁bringing": 7621,
  "▁Egyptian": 7622,
  "bet": 7623,
  "持有": 7624,
  "▁Oh": 7625,
  "FT": 7626,
  "▁inner": 7627,
  "▁Joseph": 7628,
  "tant": 7629,
  "▁Belgium": 7630,
  "ked": 7631,
  "UV": 7632,
  "cord": 7633,
  "eau": 7634,
  "▁detect": 7635,
  "ago": 7636,
  "▁Have": 7637,
  "耗": 7638,
  "▁Out": 7639,
  "▁listen": 7640,
  "▁sweet": 7641,
  "▁exposure": 7642,
  "法规": 7643,
  "首席": 7644,
  "▁nearby": 7645,
  "▁lies": 7646,
  "page": 7647,
  "rad": 7648,
  "含有": 7649,
  "▁Av": 7650,
  "ump": 7651,
  "▁namely": 7652,
  "强大的": 7653,
  "▁Adam": 7654,
  "特点": 7655,
  "▁measurement": 7656,
  "night": 7657,
  "▁PRO": 7658,
  "kr": 7659,
  "ologist": 7660,
  "第七": 7661,
  "▁fees": 7662,
  "morph": 7663,
  "rie": 7664,
  "▁Cup": 7665,
  "不过": 7666,
  "▁requirement": 7667,
  "aff": 7668,
  "▁commonly": 7669,
  "图书馆": 7670,
  "▁conclusion": 7671,
  "委员会的": 7672,
  "▁Orthodox": 7673,
  "ced": 7674,
  "▁Oil": 7675,
  "释放": 7676,
  "▁song": 7677,
  "▁Spirit": 7678,
  "▁immediate": 7679,
  "cri": 7680,
  "他说": 7681,
  "码": 7682,
  "▁criteria": 7683,
  "▁stands": 7684,
  "教会": 7685,
  "▁thank": 7686,
  "▁Square": 7687,
  "独特的": 7688,
  "▁cool": 7689,
  "▁stood": 7690,
  "▁ongoing": 7691,
  "相反": 7692,
  "EST": 7693,
  "lly": 7694,
  "▁ban": 7695,
  "清洁": 7696,
  "▁Sim": 7697,
  "BA": 7698,
  "▁如": 7699,
  "▁gift": 7700,
  "▁comfort": 7701,
  "▁competitive": 7702,
  "burg": 7703,
  "▁refers": 7704,
  "▁Resources": 7705,
  "鞋": 7706,
  "ique": 7707,
  "太阳能": 7708,
  "▁Net": 7709,
  "十二": 7710,
  "SB": 7711,
  "谨": 7712,
  "▁ahead": 7713,
  "十五": 7714,
  "▁workshop": 7715,
  "▁Name": 7716,
  "NS": 7717,
  "HO": 7718,
  "tom": 7719,
  "▁Richard": 7720,
  "▁Sudan": 7721,
  "年轻": 7722,
  "▁tourist": 7723,
  "情报": 7724,
  "vas": 7725,
  "机关": 7726,
  "▁informal": 7727,
  "专题": 7728,
  "▁entrance": 7729,
  "dent": 7730,
  "▁Del": 7731,
  "▁sessions": 7732,
  "家族": 7733,
  "iri": 7734,
  "▁thirty": 7735,
  "复杂": 7736,
  "▁valuable": 7737,
  "继": 7738,
  "▁targets": 7739,
  "▁observations": 7740,
  "▁horse": 7741,
  "▁Love": 7742,
  "▁dollar": 7743,
  "path": 7744,
  "GR": 7745,
  "▁herself": 7746,
  "iva": 7747,
  "▁Malaysia": 7748,
  "ologists": 7749,
  "▁End": 7750,
  "▁sec": 7751,
  "▁ill": 7752,
  "居住": 7753,
  "▁spending": 7754,
  "▁scheme": 7755,
  "▁objectives": 7756,
  "▁honour": 7757,
  "磁": 7758,
  "验证": 7759,
  "▁pension": 7760,
  "▁execution": 7761,
  "▁Valley": 7762,
  "▁conventional": 7763,
  "ception": 7764,
  "羊": 7765,
  "▁absence": 7766,
  "相对": 7767,
  "▁User": 7768,
  "▁Four": 7769,
  "▁coach": 7770,
  "类别": 7771,
  "高达": 7772,
  "▁constantly": 7773,
  "印刷": 7774,
  "▁adopt": 7775,
  "▁Str": 7776,
  "▁regulation": 7777,
  "服务的": 7778,
  "▁conversation": 7779,
  "重申": 7780,
  "gest": 7781,
  "▁Cas": 7782,
  "▁familiar": 7783,
  "签署": 7784,
  "阻止": 7785,
  "西方": 7786,
  "eff": 7787,
  "PH": 7788,
  "iff": 7789,
  "pass": 7790,
  "本国": 7791,
  "粮食": 7792,
  "▁•": 7793,
  "▁print": 7794,
  "El": 7795,
  "▁headquarters": 7796,
  "我们在": 7797,
  "▁tourists": 7798,
  "晚上": 7799,
  "瑟": 7800,
  "的世界": 7801,
  "▁Defense": 7802,
  "豪": 7803,
  "▁Rock": 7804,
  "轨道": 7805,
  "的公司": 7806,
  "▁pretty": 7807,
  "kon": 7808,
  "▁selling": 7809,
  "▁Get": 7810,
  "▁studio": 7811,
  "▁Jean": 7812,
  "astic": 7813,
  "▁Tro": 7814,
  "▁Mir": 7815,
  "▁deaths": 7816,
  "▁approaches": 7817,
  "域名": 7818,
  "▁islands": 7819,
  "无线": 7820,
  "arian": 7821,
  "▁Ap": 7822,
  "▁Team": 7823,
  "▁Method": 7824,
  "uck": 7825,
  "参数": 7826,
  "形式的": 7827,
  "▁button": 7828,
  "mil": 7829,
  "DF": 7830,
  "人和": 7831,
  "▁Military": 7832,
  "▁channels": 7833,
  "设有": 7834,
  "▁convenient": 7835,
  "评": 7836,
  "▁movements": 7837,
  "▁grade": 7838,
  "▁shock": 7839,
  "third": 7840,
  "▁Ram": 7841,
  "▁Charles": 7842,
  "办": 7843,
  "▁Manager": 7844,
  "▁Young": 7845,
  "sal": 7846,
  "▁Private": 7847,
  "via": 7848,
  "▁establishing": 7849,
  "inch": 7850,
  "▁arrest": 7851,
  "▁proposals": 7852,
  "罪行": 7853,
  "笔": 7854,
  "▁composed": 7855,
  "▁ultra": 7856,
  "状": 7857,
  "句": 7858,
  "▁aged": 7859,
  "▁messages": 7860,
  "last": 7861,
  "收购": 7862,
  "▁Mount": 7863,
  "▁entity": 7864,
  "▁Transport": 7865,
  "某": 7866,
  "▁Kan": 7867,
  "得到了": 7868,
  "▁loan": 7869,
  "RD": 7870,
  "ought": 7871,
  "tte": 7872,
  "▁cards": 7873,
  "hin": 7874,
  "stan": 7875,
  "▁PA": 7876,
  "▁delay": 7877,
  "FR": 7878,
  "▁neo": 7879,
  "▁tower": 7880,
  "▁marked": 7881,
  "▁Plant": 7882,
  "巨大的": 7883,
  "一座": 7884,
  "▁assistant": 7885,
  "决策": 7886,
  "觉": 7887,
  "轴": 7888,
  "bert": 7889,
  "▁attitude": 7890,
  "大规模": 7891,
  "rent": 7892,
  "▁Small": 7893,
  "插": 7894,
  "▁noise": 7895,
  "▁Change": 7896,
  "产生的": 7897,
  "▁mixed": 7898,
  "建立了": 7899,
  "免疫": 7900,
  "加速": 7901,
  "落实": 7902,
  "两种": 7903,
  "商务": 7904,
  "▁estimate": 7905,
  "▁Trust": 7906,
  "▁emp": 7907,
  "▁reflected": 7908,
  "▁deputy": 7909,
  "▁adding": 7910,
  "左右": 7911,
  "At": 7912,
  "▁frequently": 7913,
  "pen": 7914,
  "▁Den": 7915,
  "used": 7916,
  "▁favor": 7917,
  "折": 7918,
  "▁occupation": 7919,
  "监管": 7920,
  "▁welcome": 7921,
  "▁respective": 7922,
  "▁Show": 7923,
  "跟踪": 7924,
  "放在": 7925,
  "sent": 7926,
  "▁constructed": 7927,
  "学会": 7928,
  "一点": 7929,
  "bon": 7930,
  "▁unable": 7931,
  "浮": 7932,
  "镜": 7933,
  "农村": 7934,
  "mov": 7935,
  "ua": 7936,
  "Cl": 7937,
  "境内": 7938,
  "国民": 7939,
  "LP": 7940,
  "代理": 7941,
  "kel": 7942,
  "▁国际": 7943,
  "▁arch": 7944,
  "▁str": 7945,
  "AH": 7946,
  "▁Based": 7947,
  "AG": 7948,
  "吸引": 7949,
  "▁theme": 7950,
  "附近的": 7951,
  "▁flexible": 7952,
  "坎": 7953,
  "mn": 7954,
  "大学的": 7955,
  "审判": 7956,
  "基督": 7957,
  "▁boat": 7958,
  "▁indicators": 7959,
  "征": 7960,
  "▁Press": 7961,
  "▁holiday": 7962,
  "DE": 7963,
  "▁Constitution": 7964,
  "▁visa": 7965,
  "▁sensor": 7966,
  "▁laid": 7967,
  "职位": 7968,
  "qua": 7969,
  "肯定": 7970,
  "▁stream": 7971,
  "▁Wal": 7972,
  "▁percentage": 7973,
  "堂": 7974,
  "▁Khan": 7975,
  "▁Sol": 7976,
  "▁desert": 7977,
  "ecu": 7978,
  "▁videos": 7979,
  "的原因": 7980,
  "gli": 7981,
  "▁accounting": 7982,
  "▁Visit": 7983,
  "这一点": 7984,
  "▁Wikipedia": 7985,
  "TR": 7986,
  "▁packaging": 7987,
  "plan": 7988,
  "一旦": 7989,
  "▁Electric": 7990,
  "会员": 7991,
  "tile": 7992,
  "和发展": 7993,
  "营养": 7994,
  "教堂": 7995,
  "▁unto": 7996,
  "我在": 7997,
  "日内瓦": 7998,
  "own": 7999,
  "SK": 8000,
  "▁grant": 8001,
  "转移": 8002,
  "▁civilian": 8003,
  "also": 8004,
  "yon": 8005,
  "ico": 8006,
  "父亲": 8007,
  "▁Denmark": 8008,
  "▁Geo": 8009,
  "生态": 8010,
  "的一": 8011,
  "▁exports": 8012,
  "▁root": 8013,
  "▁virus": 8014,
  "new": 8015,
  "ato": 8016,
  "乱": 8017,
  "▁reserve": 8018,
  "风格": 8019,
  "逮捕": 8020,
  "喝": 8021,
  "▁Furthermore": 8022,
  "tha": 8023,
  "▁victory": 8024,
  "▁Line": 8025,
  "拟议": 8026,
  "的安全": 8027,
  "Se": 8028,
  "▁capture": 8029,
  "▁Ce": 8030,
  "▁Has": 8031,
  "文书": 8032,
  "▁Hand": 8033,
  "▁grown": 8034,
  "都在": 8035,
  "教学": 8036,
  "战斗": 8037,
  "膜": 8038,
  "莉": 8039,
  "mut": 8040,
  "oe": 8041,
  "▁Back": 8042,
  "fit": 8043,
  "▁flood": 8044,
  "▁demonstrate": 8045,
  "势": 8046,
  "原始": 8047,
  "▁council": 8048,
  "▁detention": 8049,
  "合并": 8050,
  "HD": 8051,
  "▁Using": 8052,
  "lung": 8053,
  "▁suit": 8054,
  "念": 8055,
  "▁replacement": 8056,
  "▁le": 8057,
  "▁permission": 8058,
  "▁breast": 8059,
  "▁presentation": 8060,
  "借": 8061,
  "ATION": 8062,
  "胜": 8063,
  "态": 8064,
  "cut": 8065,
  "真实": 8066,
  "▁radical": 8067,
  "▁compounds": 8068,
  "负": 8069,
  "▁heating": 8070,
  "comp": 8071,
  "▁UNDP": 8072,
  "may": 8073,
  "▁zero": 8074,
  "▁subjects": 8075,
  "▁introduce": 8076,
  "▁trends": 8077,
  "变得": 8078,
  "▁purchased": 8079,
  "▁Capital": 8080,
  "cam": 8081,
  "core": 8082,
  "▁orbit": 8083,
  "▁employed": 8084,
  "pet": 8085,
  "▁Sen": 8086,
  "这意味着": 8087,
  "护": 8088,
  "▁boost": 8089,
  "▁minute": 8090,
  "▁loans": 8091,
  "斯洛伐克": 8092,
  "尊": 8093,
  "▁waiting": 8094,
  "ces": 8095,
  "ston": 8096,
  "他们在": 8097,
  "▁samples": 8098,
  "▁Account": 8099,
  "经理": 8100,
  "这类": 8101,
  "绿": 8102,
  "▁AC": 8103,
  "▁convert": 8104,
  "更好的": 8105,
  "确实": 8106,
  "中东": 8107,
  "ache": 8108,
  "▁historic": 8109,
  "▁availability": 8110,
  "after": 8111,
  "错": 8112,
  "▁bacteria": 8113,
  "▁scope": 8114,
  "客人": 8115,
  "hua": 8116,
  "助理": 8117,
  "净": 8118,
  "▁bath": 8119,
  "▁authorized": 8120,
  "利润": 8121,
  "city": 8122,
  "中间": 8123,
  "▁Jordan": 8124,
  "组成的": 8125,
  "▁sat": 8126,
  "陈": 8127,
  "▁Wednesday": 8128,
  "颜色": 8129,
  "▁fleet": 8130,
  "莎": 8131,
  "一直在": 8132,
  "自愿": 8133,
  "UP": 8134,
  "▁Hol": 8135,
  "广播": 8136,
  "FL": 8137,
  "节目": 8138,
  "▁pipeline": 8139,
  "▁Sav": 8140,
  "▁Professional": 8141,
  "交付": 8142,
  "▁Tuesday": 8143,
  "差异": 8144,
  "付款": 8145,
  "专家组": 8146,
  "范": 8147,
  "ode": 8148,
  "NT": 8149,
  "▁Fer": 8150,
  "Po": 8151,
  "▁Garden": 8152,
  "note": 8153,
  "speed": 8154,
  "rous": 8155,
  "BP": 8156,
  "足球": 8157,
  "▁Bulgaria": 8158,
  "那样": 8159,
  "▁vital": 8160,
  "▁violation": 8161,
  "作为一个": 8162,
  "▁acting": 8163,
  "吸": 8164,
  "▁Pal": 8165,
  "▁Yet": 8166,
  "▁Welcome": 8167,
  "space": 8168,
  "▁periodic": 8169,
  "tical": 8170,
  "意识": 8171,
  "ifying": 8172,
  "接口": 8173,
  "整体": 8174,
  "▁particles": 8175,
  "福利": 8176,
  "▁decide": 8177,
  "▁understood": 8178,
  "▁residential": 8179,
  "Da": 8180,
  "▁Games": 8181,
  "▁fer": 8182,
  "思想": 8183,
  "LU": 8184,
  "参加了": 8185,
  "尾": 8186,
  "驱动": 8187,
  "▁politics": 8188,
  "uf": 8189,
  "▁UNESCO": 8190,
  "▁broken": 8191,
  "诸如": 8192,
  "angel": 8193,
  "▁fail": 8194,
  "ders": 8195,
  "转换": 8196,
  "奈": 8197,
  "授予": 8198,
  "追": 8199,
  "▁Chile": 8200,
  "监控": 8201,
  "虚拟": 8202,
  "▁Ty": 8203,
  "▁Weight": 8204,
  "cks": 8205,
  "刀": 8206,
  "▁Chapter": 8207,
  "Web": 8208,
  "hole": 8209,
  "lash": 8210,
  "▁realize": 8211,
  "一半": 8212,
  "面前": 8213,
  "Net": 8214,
  "lf": 8215,
  "经历": 8216,
  "▁pan": 8217,
  "▁Chamber": 8218,
  "tun": 8219,
  "▁Palace": 8220,
  "▁ring": 8221,
  "▁wire": 8222,
  "▁happens": 8223,
  "虫": 8224,
  "▁institute": 8225,
  "rea": 8226,
  "▁Lee": 8227,
  "BU": 8228,
  "▁paragraphs": 8229,
  "▁studying": 8230,
  "▁Modern": 8231,
  "敬": 8232,
  "▁affairs": 8233,
  "公路": 8234,
  "▁providers": 8235,
  "media": 8236,
  "▁Bol": 8237,
  "或是": 8238,
  "▁consisting": 8239,
  "▁Ji": 8240,
  "▁thin": 8241,
  "▁Argentina": 8242,
  "ality": 8243,
  "ws": 8244,
  "案例": 8245,
  "▁accused": 8246,
  "card": 8247,
  "低于": 8248,
  "elli": 8249,
  "▁reasonable": 8250,
  "▁predict": 8251,
  "▁topic": 8252,
  "▁sharing": 8253,
  "过渡": 8254,
  "▁arrangements": 8255,
  "▁cluster": 8256,
  "旅馆": 8257,
  "▁union": 8258,
  "▁infection": 8259,
  "后者": 8260,
  "▁invention": 8261,
  "阳": 8262,
  "▁tissue": 8263,
  "▁seeking": 8264,
  "恐怖": 8265,
  "kill": 8266,
  "▁configuration": 8267,
  "▁parent": 8268,
  "▁yellow": 8269,
  "▁poet": 8270,
  "▁customs": 8271,
  "伤害": 8272,
  "有所": 8273,
  "湾": 8274,
  "sure": 8275,
  "En": 8276,
  "予": 8277,
  "▁Youth": 8278,
  "▁sequence": 8279,
  "▁Cuba": 8280,
  "▁ceremony": 8281,
  "▁Forces": 8282,
  "▁visible": 8283,
  "▁structural": 8284,
  "贵": 8285,
  "ote": 8286,
  "▁Administrative": 8287,
  "MW": 8288,
  "便利": 8289,
  "告": 8290,
  "▁certificate": 8291,
  "作了": 8292,
  "▁proportion": 8293,
  "▁kingdom": 8294,
  "FP": 8295,
  "code": 8296,
  "秘密": 8297,
  "毫米": 8298,
  "接收": 8299,
  "喜": 8300,
  "两年": 8301,
  "▁regularly": 8302,
  "▁enables": 8303,
  "▁Sustainable": 8304,
  "证书": 8305,
  "角色": 8306,
  "▁expertise": 8307,
  "主要是": 8308,
  "▁CA": 8309,
  "MU": 8310,
  "rom": 8311,
  "▁smooth": 8312,
  "▁cave": 8313,
  "▁CON": 8314,
  "▁Philippines": 8315,
  "▁limits": 8316,
  "▁Navy": 8317,
  "当然": 8318,
  "Ja": 8319,
  "lands": 8320,
  "谷": 8321,
  "But": 8322,
  "的支持": 8323,
  "GP": 8324,
  "hard": 8325,
  "▁Stra": 8326,
  "▁thermal": 8327,
  "▁emerging": 8328,
  "互动": 8329,
  "▁grave": 8330,
  "▁eco": 8331,
  "▁leaves": 8332,
  "LT": 8333,
  "hir": 8334,
  "▁depend": 8335,
  "高效": 8336,
  "GM": 8337,
  "▁negotiations": 8338,
  "pping": 8339,
  "▁Summit": 8340,
  "▁Christmas": 8341,
  "双方": 8342,
  "▁waters": 8343,
  "生效": 8344,
  "敌": 8345,
  "▁consistent": 8346,
  "▁psychological": 8347,
  "身上": 8348,
  "itz": 8349,
  "cos": 8350,
  "ike": 8351,
  "▁patterns": 8352,
  "▁SO": 8353,
  "▁transformation": 8354,
  "▁invest": 8355,
  "▁SS": 8356,
  "▁Form": 8357,
  "▁warning": 8358,
  "▁chat": 8359,
  "密码": 8360,
  "ters": 8361,
  "▁Olympic": 8362,
  "▁strip": 8363,
  "融资": 8364,
  "oil": 8365,
  "▁minor": 8366,
  "NET": 8367,
  "▁demonstrated": 8368,
  "▁organ": 8369,
  "游客": 8370,
  "美利坚合众国": 8371,
  "▁Through": 8372,
  "ink": 8373,
  "根本": 8374,
  "现金": 8375,
  "国王": 8376,
  "▁Congo": 8377,
  "▁diameter": 8378,
  "▁Bridge": 8379,
  "▁Bible": 8380,
  "耶稣": 8381,
  "SG": 8382,
  "造成的": 8383,
  "的合作": 8384,
  "▁portfolio": 8385,
  "恶": 8386,
  "isa": 8387,
  "▁valid": 8388,
  "▁Hungary": 8389,
  "▁walking": 8390,
  "two": 8391,
  "race": 8392,
  "▁Website": 8393,
  "ester": 8394,
  "▁Op": 8395,
  "fish": 8396,
  "▁pictures": 8397,
  "gun": 8398,
  "▁collective": 8399,
  "愿意": 8400,
  "▁Ken": 8401,
  "▁officially": 8402,
  "▁Saturday": 8403,
  "▁Production": 8404,
  "ICE": 8405,
  "▁Thanks": 8406,
  "NN": 8407,
  "海岸": 8408,
  "▁圣": 8409,
  "▁platforms": 8410,
  "▁Pur": 8411,
  "▁sought": 8412,
  "▁certification": 8413,
  "著名的": 8414,
  "AK": 8415,
  "group": 8416,
  "maker": 8417,
  "法令": 8418,
  "screen": 8419,
  "单元": 8420,
  "学术": 8421,
  "▁Ul": 8422,
  "▁Chemical": 8423,
  "▁describe": 8424,
  "设计的": 8425,
  "大陆": 8426,
  "▁belief": 8427,
  "▁engineers": 8428,
  "▁runs": 8429,
  "lex": 8430,
  "bling": 8431,
  "▁wasn": 8432,
  "联合国系统": 8433,
  "▁pen": 8434,
  "除非": 8435,
  "▁none": 8436,
  "▁holds": 8437,
  "▁immune": 8438,
  "oke": 8439,
  "ison": 8440,
  "▁不过": 8441,
  "RNA": 8442,
  "不足": 8443,
  "▁Wood": 8444,
  "出了": 8445,
  "▁discovery": 8446,
  "的信": 8447,
  "▁Sta": 8448,
  "▁Caribbean": 8449,
  "卡尔": 8450,
  "的服务": 8451,
  "正确": 8452,
  "Ad": 8453,
  "▁derived": 8454,
  "▁这一": 8455,
  "▁Kat": 8456,
  "▁magnetic": 8457,
  "▁Doctor": 8458,
  "▁equality": 8459,
  "推广": 8460,
  "▁periods": 8461,
  "目录": 8462,
  "人权委员会": 8463,
  "化学品": 8464,
  "▁dealing": 8465,
  "士兵": 8466,
  "sw": 8467,
  "ere": 8468,
  "未经": 8469,
  "▁seeing": 8470,
  "巨": 8471,
  "▁confidence": 8472,
  "tian": 8473,
  "bil": 8474,
  "介": 8475,
  "When": 8476,
  "▁socio": 8477,
  "▁split": 8478,
  "TF": 8479,
  "▁crowd": 8480,
  "especially": 8481,
  "可以通过": 8482,
  "储存": 8483,
  "▁tube": 8484,
  "▁unusual": 8485,
  "▁chairman": 8486,
  "▁sky": 8487,
  "▁Moldova": 8488,
  "所谓的": 8489,
  "▁euros": 8490,
  "文档": 8491,
  "Ti": 8492,
  "是为了": 8493,
  "补": 8494,
  "kes": 8495,
  "中有": 8496,
  "诊断": 8497,
  "对其": 8498,
  "Ru": 8499,
  "▁vice": 8500,
  "▁Countries": 8501,
  "zar": 8502,
  "▁onto": 8503,
  "GI": 8504,
  "▁Care": 8505,
  "bla": 8506,
  "▁Authority": 8507,
  "传统的": 8508,
  "▁computers": 8509,
  "▁editor": 8510,
  "AO": 8511,
  "▁Exhibition": 8512,
  "rick": 8513,
  "▁Dec": 8514,
  "延长": 8515,
  "▁detection": 8516,
  "彩": 8517,
  "▁Portugal": 8518,
  "预订": 8519,
  "▁drinking": 8520,
  "的一项": 8521,
  "ivity": 8522,
  "iev": 8523,
  "iy": 8524,
  "▁Digital": 8525,
  "论文": 8526,
  "▁disaster": 8527,
  "cis": 8528,
  "▁rescue": 8529,
  "size": 8530,
  "引起": 8531,
  "▁MI": 8532,
  "ept": 8533,
  "▁restaurants": 8534,
  "rog": 8535,
  "ain": 8536,
  "▁edition": 8537,
  "适当的": 8538,
  "▁reviews": 8539,
  "▁birds": 8540,
  "▁mixture": 8541,
  "▁nice": 8542,
  "外交部长": 8543,
  "▁poll": 8544,
  "下午": 8545,
  "Te": 8546,
  "婚姻": 8547,
  "佳": 8548,
  "▁sons": 8549,
  "▁NO": 8550,
  "then": 8551,
  "▁firms": 8552,
  "立陶宛": 8553,
  "tter": 8554,
  "▁representation": 8555,
  "cap": 8556,
  "what": 8557,
  "荷": 8558,
  "▁craft": 8559,
  "▁fan": 8560,
  "▁instructions": 8561,
  "远程": 8562,
  "▁Thursday": 8563,
  "▁roads": 8564,
  "谷歌": 8565,
  "带有": 8566,
  "▁dose": 8567,
  "▁extend": 8568,
  "功率": 8569,
  "功": 8570,
  "起诉": 8571,
  "▁schedule": 8572,
  "进步": 8573,
  "aba": 8574,
  "▁parameters": 8575,
  "tation": 8576,
  "▁Sk": 8577,
  "序": 8578,
  "▁Kra": 8579,
  "flow": 8580,
  "▁tel": 8581,
  "▁interpretation": 8582,
  "uma": 8583,
  "▁differ": 8584,
  "▁surgery": 8585,
  "▁forget": 8586,
  "电信": 8587,
  "作家": 8588,
  "South": 8589,
  "▁rail": 8590,
  "▁clothing": 8591,
  "地理": 8592,
  "eta": 8593,
  "each": 8594,
  "▁lay": 8595,
  "lio": 8596,
  "▁Limited": 8597,
  "▁phenomenon": 8598,
  "▁stores": 8599,
  "cultural": 8600,
  "rain": 8601,
  "gol": 8602,
  "▁Villa": 8603,
  "▁Lithuania": 8604,
  "组件": 8605,
  "工资": 8606,
  "▁victim": 8607,
  "时候": 8608,
  "达成": 8609,
  "▁mi": 8610,
  "议": 8611,
  "▁accident": 8612,
  "年在": 8613,
  "▁provider": 8614,
  "ema": 8615,
  "▁Governments": 8616,
  "▁brothers": 8617,
  "警告": 8618,
  "▁Nazi": 8619,
  "ense": 8620,
  "逃": 8621,
  "汇": 8622,
  "▁parallel": 8623,
  "▁optical": 8624,
  "▁passion": 8625,
  "?”": 8626,
  "One": 8627,
  "循环": 8628,
  "▁eliminate": 8629,
  "Our": 8630,
  "nova": 8631,
  "然而": 8632,
  "John": 8633,
  "▁deployment": 8634,
  "▁prime": 8635,
  "rink": 8636,
  "pay": 8637,
  "成就": 8638,
  "▁Queen": 8639,
  "▁Gal": 8640,
  "失败": 8641,
  "▁stopped": 8642,
  "▁violations": 8643,
  "iness": 8644,
  "危地马拉": 8645,
  "▁fly": 8646,
  "▁relief": 8647,
  "▁Language": 8648,
  "▁dating": 8649,
  "▁drawn": 8650,
  "▁reward": 8651,
  "▁rising": 8652,
  "MENT": 8653,
  "▁magic": 8654,
  "▁civilization": 8655,
  "▁rental": 8656,
  "的意见": 8657,
  "▁Live": 8658,
  "▁Vietnam": 8659,
  "yer": 8660,
  "▁Amazon": 8661,
  "癌": 8662,
  "科特迪瓦": 8663,
  "▁peaceful": 8664,
  "▁democracy": 8665,
  "▁oxygen": 8666,
  "▁Kon": 8667,
  "UD": 8668,
  "就可以": 8669,
  "▁Way": 8670,
  "eni": 8671,
  "网站上": 8672,
  "▁terrorism": 8673,
  "▁Shenzhen": 8674,
  "▁closer": 8675,
  "▁mix": 8676,
  "▁flights": 8677,
  "▁versions": 8678,
  "贴": 8679,
  "▁jurisdiction": 8680,
  "▁Gro": 8681,
  "举措": 8682,
  "划": 8683,
  "▁dual": 8684,
  "une": 8685,
  "ego": 8686,
  "tab": 8687,
  "party": 8688,
  "▁Medicine": 8689,
  "几年": 8690,
  "打算": 8691,
  "▁wonderful": 8692,
  "▁Au": 8693,
  "加密": 8694,
  "oral": 8695,
  "izes": 8696,
  "资格": 8697,
  "▁intention": 8698,
  "▁rocket": 8699,
  "育": 8700,
  "▁democratic": 8701,
  "委员会主席": 8702,
  "tie": 8703,
  "azi": 8704,
  "▁lighting": 8705,
  "HK": 8706,
  "的成员": 8707,
  "的最新": 8708,
  "动态": 8709,
  "显": 8710,
  "虐待": 8711,
  "整合": 8712,
  "平方米": 8713,
  "▁mineral": 8714,
  "▁Pol": 8715,
  "▁possibly": 8716,
  "播": 8717,
  "Ge": 8718,
  "明显": 8719,
  "斯坦": 8720,
  "日和": 8721,
  "模": 8722,
  "▁associate": 8723,
  "▁trained": 8724,
  "▁sanctions": 8725,
  "▁forty": 8726,
  "▁exclusive": 8727,
  "sel": 8728,
  "Sha": 8729,
  "负责人": 8730,
  "▁bearing": 8731,
  "eries": 8732,
  "▁proof": 8733,
  "▁territories": 8734,
  "▁pointed": 8735,
  "grade": 8736,
  "白色": 8737,
  "▁Prof": 8738,
  "观测": 8739,
  "▁towns": 8740,
  "▁Mes": 8741,
  "芬": 8742,
  "与其他": 8743,
  "CAT": 8744,
  "▁taxes": 8745,
  "rav": 8746,
  "pens": 8747,
  "构建": 8748,
  "lap": 8749,
  "的历史": 8750,
  "点击": 8751,
  "▁accompanied": 8752,
  "Ga": 8753,
  "▁Cat": 8754,
  "▁absolute": 8755,
  "▁Spa": 8756,
  "▁stored": 8757,
  "隐": 8758,
  "黄金": 8759,
  "Part": 8760,
  "出版物": 8761,
  "▁module": 8762,
  "▁主席": 8763,
  "▁proved": 8764,
  "▁Kuwait": 8765,
  "▁friendly": 8766,
  "▁candidate": 8767,
  "fire": 8768,
  "平民": 8769,
  "ios": 8770,
  "▁cup": 8771,
  "自身": 8772,
  "▁scientist": 8773,
  "▁MP": 8774,
  "物品": 8775,
  "▁suffered": 8776,
  "▁Labour": 8777,
  "NP": 8778,
  "硬件": 8779,
  "▁install": 8780,
  "感觉": 8781,
  "cure": 8782,
  "变成": 8783,
  "男孩": 8784,
  "▁architect": 8785,
  "▁transform": 8786,
  "的前": 8787,
  "▁Uni": 8788,
  "▁discussions": 8789,
  "宣": 8790,
  "浏览器": 8791,
  "▁whereas": 8792,
  "▁最后": 8793,
  "耳": 8794,
  "▁musical": 8795,
  "止": 8796,
  "在他": 8797,
  "载有": 8798,
  "▁prominent": 8799,
  "▁websites": 8800,
  "▁click": 8801,
  "红色": 8802,
  "▁stick": 8803,
  "HI": 8804,
  "▁developments": 8805,
  "▁identification": 8806,
  "同一": 8807,
  "予以": 8808,
  "ulating": 8809,
  "可用": 8810,
  "在他的": 8811,
  "产品的": 8812,
  "▁ourselves": 8813,
  "▁Zo": 8814,
  "▁wireless": 8815,
  "观点": 8816,
  "▁Decision": 8817,
  "▁NATO": 8818,
  "在于": 8819,
  "▁brings": 8820,
  "翻": 8821,
  "raz": 8822,
  "CAR": 8823,
  "▁machinery": 8824,
  "▁Further": 8825,
  "▁keeping": 8826,
  "vic": 8827,
  "ering": 8828,
  "袋": 8829,
  "UB": 8830,
  "ied": 8831,
  "▁farmers": 8832,
  "▁strange": 8833,
  "SIS": 8834,
  "lab": 8835,
  "awa": 8836,
  "▁blind": 8837,
  "stein": 8838,
  "细节": 8839,
  "▁Tokyo": 8840,
  "▁suffer": 8841,
  "一个人": 8842,
  "▁humanity": 8843,
  "▁我们的": 8844,
  "ility": 8845,
  "▁powder": 8846,
  "economic": 8847,
  "显然": 8848,
  "▁explains": 8849,
  "用品": 8850,
  "指令": 8851,
  "总理": 8852,
  "▁lands": 8853,
  "▁liberal": 8854,
  "boy": 8855,
  "lines": 8856,
  "敏感": 8857,
  "▁organs": 8858,
  "三年": 8859,
  "take": 8860,
  "Har": 8861,
  "▁bound": 8862,
  "ij": 8863,
  "▁contest": 8864,
  "▁weapon": 8865,
  "ying": 8866,
  "▁plays": 8867,
  "pil": 8868,
  "委员会在": 8869,
  "疑": 8870,
  "的任务": 8871,
  "扬": 8872,
  "▁Sale": 8873,
  "▁accessible": 8874,
  "▁communicate": 8875,
  "▁fans": 8876,
  "表演": 8877,
  "▁modified": 8878,
  "chy": 8879,
  "舰": 8880,
  "难以": 8881,
  "▁Play": 8882,
  "▁clock": 8883,
  "fall": 8884,
  "▁CE": 8885,
  "eno": 8886,
  "▁assigned": 8887,
  "▁mutual": 8888,
  "▁institutional": 8889,
  "▁bag": 8890,
  "▁tells": 8891,
  "周期": 8892,
  "结论": 8893,
  "不需要": 8894,
  "决": 8895,
  "新型": 8896,
  "农民": 8897,
  "▁score": 8898,
  "mont": 8899,
  "▁Though": 8900,
  "SL": 8901,
  "芯片": 8902,
  "保加利亚": 8903,
  "dem": 8904,
  "▁citizen": 8905,
  "朱": 8906,
  "星期": 8907,
  "皇家": 8908,
  "▁foods": 8909,
  "屋": 8910,
  "壁": 8911,
  "▁Tribunal": 8912,
  "▁sitting": 8913,
  "ost": 8914,
  "季度": 8915,
  "让我们": 8916,
  "▁assume": 8917,
  "基督教": 8918,
  "电源": 8919,
  "▁Sw": 8920,
  "cious": 8921,
  "▁Hor": 8922,
  "即将": 8923,
  "主持": 8924,
  "的第一": 8925,
  "▁Ker": 8926,
  "ancy": 8927,
  "▁Sales": 8928,
  "ime": 8929,
  "▁grain": 8930,
  "▁Between": 8931,
  "rim": 8932,
  "ister": 8933,
  "顺": 8934,
  "dro": 8935,
  "name": 8936,
  "▁starts": 8937,
  "佐": 8938,
  "▁pollution": 8939,
  "▁strike": 8940,
  "resistant": 8941,
  "▁boys": 8942,
  "饰": 8943,
  "地面": 8944,
  "OH": 8945,
  "▁Low": 8946,
  "▁Jin": 8947,
  "实时": 8948,
  "▁fluid": 8949,
  "绝对": 8950,
  "▁submission": 8951,
  "▁Moon": 8952,
  "▁uniform": 8953,
  "和社会": 8954,
  "听到": 8955,
  "elect": 8956,
  "ovo": 8957,
  "▁intelligent": 8958,
  "花园": 8959,
  "▁Mos": 8960,
  "▁Mus": 8961,
  "▁hidden": 8962,
  "▁expanded": 8963,
  "相似": 8964,
  "▁rating": 8965,
  "▁missing": 8966,
  "黑色": 8967,
  "哪些": 8968,
  "▁recording": 8969,
  "▁Swedish": 8970,
  "stitution": 8971,
  "对此": 8972,
  "有着": 8973,
  "rough": 8974,
  "欲": 8975,
  "梦": 8976,
  "马里": 8977,
  "互": 8978,
  "杯": 8979,
  "裔": 8980,
  "▁electro": 8981,
  "tia": 8982,
  "▁gained": 8983,
  "▁exists": 8984,
  "▁gradually": 8985,
  "▁compound": 8986,
  "商标": 8987,
  "▁Finally": 8988,
  "该地区": 8989,
  "▁effectiveness": 8990,
  "的故事": 8991,
  "▁dust": 8992,
  "▁Quality": 8993,
  "▁Syn": 8994,
  "▁demands": 8995,
  "收到了": 8996,
  "▁Times": 8997,
  "▁thereby": 8998,
  "▁Relations": 8999,
  "▁accuracy": 9000,
  "gri": 9001,
  "▁posted": 9002,
  "▁dogs": 9003,
  "▁tanks": 9004,
  "担心": 9005,
  "大脑": 9006,
  "▁broke": 9007,
  "▁assembly": 9008,
  "▁Tim": 9009,
  "▁Sand": 9010,
  "mid": 9011,
  "▁Crime": 9012,
  "上面": 9013,
  "重复": 9014,
  "来到": 9015,
  "pra": 9016,
  "反映": 9017,
  "幅": 9018,
  "OU": 9019,
  "▁valve": 9020,
  "powered": 9021,
  "def": 9022,
  "▁asset": 9023,
  "▁Bru": 9024,
  "青少年": 9025,
  "的价格": 9026,
  "ulated": 9027,
  "十六": 9028,
  "锡": 9029,
  "▁Construction": 9030,
  "hel": 9031,
  "leg": 9032,
  "DD": 9033,
  "hop": 9034,
  "股票": 9035,
  "▁Due": 9036,
  "▁Enterprise": 9037,
  "邮件": 9038,
  "横": 9039,
  "▁Motor": 9040,
  "HC": 9041,
  "▁earn": 9042,
  "认识": 9043,
  "bound": 9044,
  "永远": 9045,
  "临床": 9046,
  "▁\\": 9047,
  "▁sections": 9048,
  "的设计": 9049,
  "▁Tatarstan": 9050,
  "commerce": 9051,
  "▁Field": 9052,
  "▁Questions": 9053,
  "▁indicates": 9054,
  "之下": 9055,
  "friendly": 9056,
  "▁dates": 9057,
  "依赖": 9058,
  "面向": 9059,
  "▁RO": 9060,
  "▁leg": 9061,
  "dong": 9062,
  "pal": 9063,
  "▁guest": 9064,
  "有机": 9065,
  "正是": 9066,
  "坚持": 9067,
  "广泛的": 9068,
  "▁Fri": 9069,
  "vid": 9070,
  "▁colors": 9071,
  "Is": 9072,
  "▁Marine": 9073,
  "▁此": 9074,
  "▁superior": 9075,
  "flo": 9076,
  "word": 9077,
  "▁browser": 9078,
  "lac": 9079,
  "▁Film": 9080,
  "出席": 9081,
  "怀疑": 9082,
  "▁formula": 9083,
  "靠": 9084,
  "Wi": 9085,
  "拍摄": 9086,
  "职能": 9087,
  "▁bread": 9088,
  "购": 9089,
  "when": 9090,
  "BL": 9091,
  "刚果": 9092,
  "SH": 9093,
  "的基本": 9094,
  "咨询委员会": 9095,
  "▁captured": 9096,
  "杂": 9097,
  "ille": 9098,
  "max": 9099,
  "▁manual": 9100,
  "废物": 9101,
  "苦": 9102,
  "▁economies": 9103,
  "▁vaccine": 9104,
  "充满": 9105,
  "AY": 9106,
  "复制": 9107,
  "eur": 9108,
  "▁coverage": 9109,
  "每一": 9110,
  "yi": 9111,
  "▁highway": 9112,
  "ulate": 9113,
  "▁distinct": 9114,
  "▁bottle": 9115,
  "ML": 9116,
  "▁proud": 9117,
  "▁正如": 9118,
  "sche": 9119,
  "转让": 9120,
  "ame": 9121,
  "▁Mother": 9122,
  "裁决": 9123,
  "家人": 9124,
  "▁ride": 9125,
  "重建": 9126,
  "▁recall": 9127,
  "▁escape": 9128,
  "▁Travel": 9129,
  "已被": 9130,
  "的经济": 9131,
  "发明": 9132,
  "▁Exchange": 9133,
  "▁AT": 9134,
  "▁measured": 9135,
  "▁Yan": 9136,
  "▁attached": 9137,
  "未能": 9138,
  "共有": 9139,
  "在中国": 9140,
  "version": 9141,
  "找": 9142,
  "知识产权": 9143,
  "▁voluntary": 9144,
  "gate": 9145,
  "▁plate": 9146,
  "wards": 9147,
  "护理": 9148,
  "▁Smart": 9149,
  "▁potentially": 9150,
  "▁trillion": 9151,
  "izer": 9152,
  "手册": 9153,
  "并不是": 9154,
  "ged": 9155,
  "GU": 9156,
  "看看": 9157,
  "▁Lab": 9158,
  "LED": 9159,
  "▁merely": 9160,
  "▁Vir": 9161,
  "以确保": 9162,
  "▁realized": 9163,
  "▁sensitive": 9164,
  "▁Mont": 9165,
  "▁advantages": 9166,
  "▁cleaning": 9167,
  "第二次": 9168,
  "封": 9169,
  "▁completion": 9170,
  "▁Personal": 9171,
  "▁talent": 9172,
  "▁ran": 9173,
  "完整": 9174,
  "were": 9175,
  "▁Frank": 9176,
  "stream": 9177,
  "iro": 9178,
  "某种": 9179,
  "ough": 9180,
  "通道": 9181,
  "▁shut": 9182,
  "人物": 9183,
  "呼": 9184,
  "ello": 9185,
  "▁Cur": 9186,
  "▁incident": 9187,
  "▁greatly": 9188,
  "▁Members": 9189,
  "▁regulatory": 9190,
  "面临": 9191,
  "西亚": 9192,
  "彼得": 9193,
  "▁guy": 9194,
  "▁venture": 9195,
  "▁Full": 9196,
  "▁appointment": 9197,
  "▁designer": 9198,
  "放弃": 9199,
  "的各种": 9200,
  "▁flowers": 9201,
  "Art": 9202,
  "▁Temple": 9203,
  "▁pregnancy": 9204,
  "nch": 9205,
  "▁Tor": 9206,
  "▁controls": 9207,
  "driven": 9208,
  "cht": 9209,
  "井": 9210,
  "▁eating": 9211,
  "▁maybe": 9212,
  "tim": 9213,
  "credit": 9214,
  "英尺": 9215,
  "博客": 9216,
  "sim": 9217,
  "▁Ash": 9218,
  "▁wedding": 9219,
  "▁density": 9220,
  "▁transaction": 9221,
  "▁operator": 9222,
  "ibility": 9223,
  "合理": 9224,
  "怀": 9225,
  "消": 9226,
  "关切": 9227,
  "▁engage": 9228,
  "的水": 9229,
  "受益": 9230,
  "open": 9231,
  "▁provisional": 9232,
  "▁patent": 9233,
  "▁Reserve": 9234,
  "技术和": 9235,
  "ents": 9236,
  "eon": 9237,
  "氧化": 9238,
  "▁Santa": 9239,
  "▁chemicals": 9240,
  "▁turning": 9241,
  "▁usual": 9242,
  "▁fur": 9243,
  "VR": 9244,
  "▁royal": 9245,
  "Bar": 9246,
  "▁valley": 9247,
  "▁clinic": 9248,
  "举行了": 9249,
  "bid": 9250,
  "▁Sin": 9251,
  "▁explanation": 9252,
  "”)": 9253,
  "同事": 9254,
  "▁push": 9255,
  "▁随着": 9256,
  "奧": 9257,
  "▁Document": 9258,
  "强烈": 9259,
  "推荐": 9260,
  "▁thick": 9261,
  "▁lawyer": 9262,
  "stance": 9263,
  "额外": 9264,
  "厄瓜多尔": 9265,
  "解放": 9266,
  "▁Phil": 9267,
  "▁proceedings": 9268,
  "Wa": 9269,
  "担保": 9270,
  "▁Resolution": 9271,
  "麻": 9272,
  "oster": 9273,
  "▁pull": 9274,
  "▁documentation": 9275,
  "发现了": 9276,
  "的经验": 9277,
  "等待": 9278,
  "▁Tan": 9279,
  "及其他": 9280,
  "后果": 9281,
  "▁Pos": 9282,
  "▁amazing": 9283,
  "▁clothes": 9284,
  "eck": 9285,
  "road": 9286,
  "school": 9287,
  "member": 9288,
  "▁chronic": 9289,
  "年底": 9290,
  "▁Set": 9291,
  "肯尼亚": 9292,
  "▁courts": 9293,
  "ota": 9294,
  "▁Base": 9295,
  "▁drawing": 9296,
  "▁然后": 9297,
  "更改": 9298,
  "▁trafficking": 9299,
  "▁candidates": 9300,
  "lig": 9301,
  "▁sensors": 9302,
  "裁军": 9303,
  "研究中心": 9304,
  "技术的": 9305,
  "的高": 9306,
  "管理局": 9307,
  "oxy": 9308,
  "▁EC": 9309,
  "▁operated": 9310,
  "住宅": 9311,
  "Russia": 9312,
  "static": 9313,
  "ished": 9314,
  "惊": 9315,
  "抽": 9316,
  "众多": 9317,
  "特朗普": 9318,
  "核准": 9319,
  "▁arise": 9320,
  "▁statistical": 9321,
  "nam": 9322,
  "天主教": 9323,
  "高速": 9324,
  "▁Prize": 9325,
  "最近的": 9326,
  "推进": 9327,
  "▁ju": 9328,
  "being": 9329,
  "▁transmitting": 9330,
  "▁Make": 9331,
  "author": 9332,
  "▁threats": 9333,
  "▁banking": 9334,
  "▁Christians": 9335,
  "▁signals": 9336,
  "cip": 9337,
  "▁salary": 9338,
  "唯一": 9339,
  "BM": 9340,
  "AIDS": 9341,
  "▁summary": 9342,
  "blo": 9343,
  "】": 9344,
  "▁stretch": 9345,
  "标题": 9346,
  "▁Within": 9347,
  "避": 9348,
  "童": 9349,
  "spec": 9350,
  "RF": 9351,
  "▁adequate": 9352,
  "▁Kol": 9353,
  "厨房": 9354,
  "人在": 9355,
  "▁involves": 9356,
  "CB": 9357,
  "Pre": 9358,
  "▁prisoners": 9359,
  "force": 9360,
  "埃塞俄比亚": 9361,
  "的事": 9362,
  "▁comply": 9363,
  "bek": 9364,
  "▁crash": 9365,
  "洋": 9366,
  "拍": 9367,
  "▁dispute": 9368,
  "▁min": 9369,
  "的费用": 9370,
  "ND": 9371,
  "▁programming": 9372,
  "课": 9373,
  "▁smoke": 9374,
  "Mon": 9375,
  "▁产品": 9376,
  "▁attempts": 9377,
  "缩": 9378,
  "rob": 9379,
  "duce": 9380,
  "▁carefully": 9381,
  "▁vessel": 9382,
  "奶": 9383,
  "▁folk": 9384,
  "▁EX": 9385,
  "ett": 9386,
  "编码": 9387,
  "▁younger": 9388,
  "▁attractive": 9389,
  "占领": 9390,
  "▁Right": 9391,
  "看起来": 9392,
  "▁serves": 9393,
  "▁facts": 9394,
  "残疾": 9395,
  "▁diverse": 9396,
  "▁suppliers": 9397,
  "ket": 9398,
  "瓜": 9399,
  "乘": 9400,
  "rator": 9401,
  "ank": 9402,
  "刚果民主共和国": 9403,
  "Don": 9404,
  "甘": 9405,
  "勤": 9406,
  "▁Watch": 9407,
  "▁Daniel": 9408,
  "▁designs": 9409,
  "▁willing": 9410,
  "mos": 9411,
  "▁Library": 9412,
  "▁traditions": 9413,
  "▁roughly": 9414,
  "里亚": 9415,
  "标记": 9416,
  "的位置": 9417,
  "做了": 9418,
  "英镑": 9419,
  "▁employee": 9420,
  "▁wage": 9421,
  "▁Color": 9422,
  "婴儿": 9423,
  "using": 9424,
  "▁depends": 9425,
  "▁cheap": 9426,
  "▁finds": 9427,
  "▁bond": 9428,
  "围": 9429,
  "ographic": 9430,
  "▁stem": 9431,
  "终止": 9432,
  "▁Mid": 9433,
  "网上": 9434,
  "▁reaching": 9435,
  "▁attract": 9436,
  "gree": 9437,
  "▁temperatures": 9438,
  "lib": 9439,
  "盟": 9440,
  "cture": 9441,
  "父": 9442,
  "▁developers": 9443,
  "的社会": 9444,
  "▁lowest": 9445,
  "并非": 9446,
  "mis": 9447,
  "▁visiting": 9448,
  "▁Ky": 9449,
  "酒吧": 9450,
  "▁turns": 9451,
  "装备": 9452,
  "akov": 9453,
  "▁要": 9454,
  "的最": 9455,
  "▁diabetes": 9456,
  "物种": 9457,
  "▁Governor": 9458,
  "▁passing": 9459,
  "ridge": 9460,
  "evsky": 9461,
  "习惯": 9462,
  "伟大的": 9463,
  "▁exact": 9464,
  "▁devoted": 9465,
  "hl": 9466,
  "etic": 9467,
  "inger": 9468,
  "不可能": 9469,
  "▁initially": 9470,
  "▁Mikhail": 9471,
  "克拉": 9472,
  "幕": 9473,
  "的政治": 9474,
  "ook": 9475,
  "▁Source": 9476,
  "▁productivity": 9477,
  "乳": 9478,
  "cover": 9479,
  "昂": 9480,
  "玩家": 9481,
  "收益": 9482,
  "访": 9483,
  "aro": 9484,
  "觉得": 9485,
  "▁guard": 9486,
  "铜": 9487,
  "▁grounds": 9488,
  "cycle": 9489,
  "▁maintained": 9490,
  "约旦": 9491,
  "ended": 9492,
  "▁pleasure": 9493,
  "太空": 9494,
  "BT": 9495,
  "充": 9496,
  "stal": 9497,
  "▁Bro": 9498,
  "团结": 9499,
  "▁Meanwhile": 9500,
  "▁Nature": 9501,
  "▁Angel": 9502,
  "▁Angeles": 9503,
  "master": 9504,
  "知名": 9505,
  "遗": 9506,
  "▁sn": 9507,
  "tta": 9508,
  "▁treaty": 9509,
  "▁managers": 9510,
  "容量": 9511,
  "▁chamber": 9512,
  "▁causing": 9513,
  "▁Var": 9514,
  "▁quiet": 9515,
  "▁Res": 9516,
  "的关键": 9517,
  "多边": 9518,
  "种植": 9519,
  "▁peacekeeping": 9520,
  "遇到": 9521,
  "park": 9522,
  "control": 9523,
  "医": 9524,
  "▁AR": 9525,
  "▁entertainment": 9526,
  "▁rear": 9527,
  "在该": 9528,
  "一套": 9529,
  "▁storm": 9530,
  "▁savings": 9531,
  "▁cyber": 9532,
  "yat": 9533,
  "pine": 9534,
  "尤其": 9535,
  "协作": 9536,
  "miss": 9537,
  "eman": 9538,
  "▁Colombia": 9539,
  "▁worse": 9540,
  "显著": 9541,
  "▁Fun": 9542,
  "订": 9543,
  "▁Communist": 9544,
  "一款": 9545,
  "▁Mai": 9546,
  "▁flying": 9547,
  "斯洛文尼亚": 9548,
  "的学生": 9549,
  "▁describes": 9550,
  "里的": 9551,
  "马尔": 9552,
  "cum": 9553,
  "pent": 9554,
  "氯": 9555,
  "纤维": 9556,
  "yk": 9557,
  "reg": 9558,
  "hoo": 9559,
  "zz": 9560,
  "oul": 9561,
  "▁concepts": 9562,
  "美国的": 9563,
  "董事": 9564,
  "▁其中": 9565,
  "▁Prevention": 9566,
  "▁Forest": 9567,
  "诗": 9568,
  "▁thoughts": 9569,
  "柏林": 9570,
  "ido": 9571,
  "初步": 9572,
  "市场的": 9573,
  "信任": 9574,
  "▁vitamin": 9575,
  "海军": 9576,
  "阿尔及利亚": 9577,
  "▁Mediterranean": 9578,
  "▁Java": 9579,
  "▁Peru": 9580,
  "的可能性": 9581,
  "▁Iraqi": 9582,
  "▁lock": 9583,
  "▁Rad": 9584,
  "池": 9585,
  "▁arts": 9586,
  "▁Obama": 9587,
  "▁Corr": 9588,
  "▁injury": 9589,
  "▁decreased": 9590,
  "lid": 9591,
  "租": 9592,
  "▁personality": 9593,
  "rac": 9594,
  "中心的": 9595,
  "索马里": 9596,
  "面对": 9597,
  "ject": 9598,
  "正如": 9599,
  "牧": 9600,
  "华盛顿": 9601,
  "iving": 9602,
  "各个": 9603,
  "拉斯": 9604,
  "个国家": 9605,
  "▁migration": 9606,
  "▁Des": 9607,
  "▁Louis": 9608,
  "▁produces": 9609,
  "创作": 9610,
  "▁Supplier": 9611,
  "▁Agriculture": 9612,
  "▁outer": 9613,
  "航空公司": 9614,
  "▁Eli": 9615,
  "菜": 9616,
  "良好的": 9617,
  "▁outdoor": 9618,
  "回收": 9619,
  "哥斯达黎加": 9620,
  "▁missiles": 9621,
  "而在": 9622,
  "▁joy": 9623,
  "Un": 9624,
  "▁catch": 9625,
  "▁corruption": 9626,
  "▁Instead": 9627,
  "controlled": 9628,
  "坏": 9629,
  "▁Smith": 9630,
  "▁Terms": 9631,
  "▁syndrome": 9632,
  "售": 9633,
  "完整的": 9634,
  "▁segment": 9635,
  "不得不": 9636,
  "旅": 9637,
  "▁measuring": 9638,
  "enti": 9639,
  "▁blow": 9640,
  "▁resident": 9641,
  "▁subsequently": 9642,
  "▁aspect": 9643,
  "▁Der": 9644,
  "捷克共和国": 9645,
  "▁papers": 9646,
  "这两个": 9647,
  "▁Dor": 9648,
  "mine": 9649,
  "dig": 9650,
  "假设": 9651,
  "不受": 9652,
  "候选人": 9653,
  "liter": 9654,
  "复杂的": 9655,
  "鸟": 9656,
  "▁Ay": 9657,
  "got": 9658,
  "▁Sports": 9659,
  "▁rec": 9660,
  "▁belonging": 9661,
  "静": 9662,
  "雇员": 9663,
  "苏联": 9664,
  "在同一": 9665,
  "▁liability": 9666,
  "会议上": 9667,
  "▁heritage": 9668,
  "针": 9669,
  "想象": 9670,
  "▁Ste": 9671,
  "▁pour": 9672,
  "ifier": 9673,
  "▁Sergey": 9674,
  "灰": 9675,
  "和一个": 9676,
  "十八": 9677,
  "▁Having": 9678,
  "aux": 9679,
  "▁Railway": 9680,
  "▁cal": 9681,
  "猫": 9682,
  "▁tiny": 9683,
  "week": 9684,
  "fro": 9685,
  "dr": 9686,
  "▁classical": 9687,
  "▁ownership": 9688,
  "▁Kyiv": 9689,
  "▁defeat": 9690,
  "▁alien": 9691,
  "不管": 9692,
  "▁Major": 9693,
  "mini": 9694,
  "wal": 9695,
  "▁parking": 9696,
  "▁Nar": 9697,
  "▁其他": 9698,
  "现有的": 9699,
  "阴": 9700,
  "Du": 9701,
  "和他的": 9702,
  "▁exposed": 9703,
  "▁Bir": 9704,
  "Gen": 9705,
  "▁Latvia": 9706,
  "▁euro": 9707,
  "▁preparing": 9708,
  "▁Nigeria": 9709,
  "▁obvious": 9710,
  "联络": 9711,
  "DNA": 9712,
  "精确": 9713,
  "▁copyright": 9714,
  "公布": 9715,
  "▁considering": 9716,
  "任何人": 9717,
  "▁strict": 9718,
  "nut": 9719,
  "FM": 9720,
  "具备": 9721,
  "▁talks": 9722,
  "▁targeted": 9723,
  "播放": 9724,
  "▁palace": 9725,
  "yle": 9726,
  "fort": 9727,
  "▁muscle": 9728,
  "▁underground": 9729,
  "▁annually": 9730,
  "莫斯科": 9731,
  "智慧": 9732,
  "▁producer": 9733,
  "mination": 9734,
  "▁Bus": 9735,
  "房屋": 9736,
  "▁theoretical": 9737,
  "▁revolutionary": 9738,
  "▁Statistics": 9739,
  "▁Battle": 9740,
  "登录": 9741,
  "cr": 9742,
  "pack": 9743,
  "tum": 9744,
  "展开": 9745,
  "多年": 9746,
  "更好地": 9747,
  "▁Lev": 9748,
  "PF": 9749,
  "卢森堡": 9750,
  "▁punishment": 9751,
  "▁answers": 9752,
  "▁medal": 9753,
  "德拉": 9754,
  "▁membership": 9755,
  "▁Venezuela": 9756,
  "▁undertaken": 9757,
  "所载": 9758,
  "▁broadcast": 9759,
  "的重要性": 9760,
  "ines": 9761,
  "响应": 9762,
  "▁genes": 9763,
  "▁sur": 9764,
  "gger": 9765,
  "▁log": 9766,
  "也就是": 9767,
  "▁vulnerable": 9768,
  "utter": 9769,
  "购物": 9770,
  "▁Author": 9771,
  "KI": 9772,
  "▁facing": 9773,
  "▁journalist": 9774,
  "▁Mah": 9775,
  "判决": 9776,
  "ered": 9777,
  "udi": 9778,
  "刚": 9779,
  "▁adapt": 9780,
  "以及在": 9781,
  "的标准": 9782,
  "参观": 9783,
  "west": 9784,
  "▁caught": 9785,
  "召开": 9786,
  "▁ultimately": 9787,
  "Trans": 9788,
  "▁strongly": 9789,
  "其他人": 9790,
  "缺": 9791,
  "▁governor": 9792,
  "▁census": 9793,
  "▁Population": 9794,
  "text": 9795,
  "▁suddenly": 9796,
  "nm": 9797,
  "沙特阿拉伯": 9798,
  "▁Rob": 9799,
  "▁monument": 9800,
  "葡萄酒": 9801,
  "铝": 9802,
  "国际组织": 9803,
  "▁Mini": 9804,
  "▁wooden": 9805,
  "疫苗": 9806,
  "▁fix": 9807,
  "年期间": 9808,
  "十九": 9809,
  "++": 9810,
  "架构": 9811,
  "刊": 9812,
  "答": 9813,
  "卡拉": 9814,
  "白俄罗斯": 9815,
  "▁liver": 9816,
  "深入": 9817,
  "▁Iron": 9818,
  "boot": 9819,
  "▁finish": 9820,
  "▁saved": 9821,
  "域": 9822,
  "环保": 9823,
  "▁contributed": 9824,
  "亚美尼亚": 9825,
  "▁pharmaceutical": 9826,
  "▁hydrogen": 9827,
  "出现在": 9828,
  "优惠": 9829,
  "ads": 9830,
  "大量的": 9831,
  "▁Gre": 9832,
  "tale": 9833,
  "办公": 9834,
  "▁adjust": 9835,
  "pad": 9836,
  "回应": 9837,
  "Shar": 9838,
  "oper": 9839,
  "▁seats": 9840,
  "酶": 9841,
  "首都": 9842,
  "▁recommends": 9843,
  "能力建设": 9844,
  "data": 9845,
  "关联": 9846,
  "者和": 9847,
  "区的": 9848,
  "▁supposed": 9849,
  "▁Lar": 9850,
  "Off": 9851,
  "▁Ren": 9852,
  "住在": 9853,
  "thy": 9854,
  "ih": 9855,
  "重量": 9856,
  "pos": 9857,
  "▁proteins": 9858,
  "▁Lin": 9859,
  "▁permit": 9860,
  "wall": 9861,
  "机构的": 9862,
  "▁Study": 9863,
  "die": 9864,
  "▁Georgian": 9865,
  "MIN": 9866,
  "▁judgment": 9867,
  "首脑会议": 9868,
  "mic": 9869,
  "▁gear": 9870,
  "mud": 9871,
  "▁recommendation": 9872,
  "RK": 9873,
  "▁Sign": 9874,
  "▁Implementation": 9875,
  "报告中": 9876,
  "shed": 9877,
  "▁beings": 9878,
  "涵盖": 9879,
  "体制": 9880,
  "▁experiments": 9881,
  "▁removal": 9882,
  "▁brands": 9883,
  "旋": 9884,
  "She": 9885,
  "好的": 9886,
  "海外": 9887,
  "▁Bosnia": 9888,
  "每月": 9889,
  "hom": 9890,
  "lub": 9891,
  "最新的": 9892,
  "▁sounds": 9893,
  "▁jump": 9894,
  "管理和": 9895,
  "以外": 9896,
  "上市": 9897,
  "帝国": 9898,
  "▁defence": 9899,
  "满意": 9900,
  "港口": 9901,
  "被认为是": 9902,
  "薄": 9903,
  "▁assess": 9904,
  "塑": 9905,
  "的全球": 9906,
  "▁Spring": 9907,
  "SN": 9908,
  "▁Em": 9909,
  "▁Mass": 9910,
  "最重要的": 9911,
  "炎": 9912,
  "很少": 9913,
  "▁conversion": 9914,
  "数额": 9915,
  "▁attacked": 9916,
  "bble": 9917,
  "▁hypo": 9918,
  "▁deposits": 9919,
  "泵": 9920,
  "痛苦": 9921,
  "▁LI": 9922,
  "▁random": 9923,
  "川": 9924,
  "首席执行官": 9925,
  "▁loved": 9926,
  "▁icon": 9927,
  "政府间": 9928,
  "我要": 9929,
  "配备": 9930,
  "▁maintaining": 9931,
  "SW": 9932,
  "偷": 9933,
  "▁operators": 9934,
  "▁Blo": 9935,
  "▁connections": 9936,
  "愿": 9937,
  "▁Customer": 9938,
  "▁lab": 9939,
  "这个问题": 9940,
  "▁AL": 9941,
  "nikov": 9942,
  "氢": 9943,
  "▁shops": 9944,
  "▁Tour": 9945,
  "五年": 9946,
  "▁array": 9947,
  "斯塔": 9948,
  "的各项": 9949,
  "执法": 9950,
  "▁monastery": 9951,
  "▁specialist": 9952,
  "▁Staff": 9953,
  "▁Miss": 9954,
  "pit": 9955,
  "这将": 9956,
  "肥": 9957,
  "庭": 9958,
  "▁designated": 9959,
  "Min": 9960,
  "▁creates": 9961,
  "sul": 9962,
  "▁supplement": 9963,
  "美元的": 9964,
  "空中": 9965,
  "的形式": 9966,
  "▁passage": 9967,
  "处理器": 9968,
  "▁dropped": 9969,
  "今": 9970,
  "性质": 9971,
  "▁songs": 9972,
  "lad": 9973,
  "▁refused": 9974,
  "▁string": 9975,
  "tors": 9976,
  "电动": 9977,
  "▁extract": 9978,
  "类似的": 9979,
  "prov": 9980,
  "acc": 9981,
  "及时": 9982,
  "▁coating": 9983,
  "ASS": 9984,
  "yev": 9985,
  "与发展": 9986,
  "wr": 9987,
  "▁Chang": 9988,
  "财": 9989,
  "▁Revolution": 9990,
  "▁所有": 9991,
  "开发的": 9992,
  "拟": 9993,
  "▁childhood": 9994,
  "itation": 9995,
  "气体": 9996,
  "更为": 9997,
  "硫": 9998,
  "▁regarded": 9999,
  "▁blocks": 10000,
  "符": 10001,
  "德尔": 10002,
  "bak": 10003,
  "gic": 10004,
  "▁driven": 10005,
  "▁vertical": 10006,
  "▁doors": 10007,
  "▁bone": 10008,
  "▁Territory": 10009,
  "▁sharp": 10010,
  "毁": 10011,
  "▁experimental": 10012,
  "▁winner": 10013,
  "▁Dia": 10014,
  "Pod": 10015,
  "hang": 10016,
  "编程": 10017,
  "▁arising": 10018,
  "▁Lau": 10019,
  "▁stuff": 10020,
  "最好": 10021,
  "▁同时": 10022,
  "丈夫": 10023,
  "▁mar": 10024,
  "ched": 10025,
  "相当于": 10026,
  "▁Croatia": 10027,
  "▁Property": 10028,
  "▁Xi": 10029,
  "▁Card": 10030,
  "▁declaration": 10031,
  "▁Fair": 10032,
  "无论是": 10033,
  "的一种": 10034,
  "际": 10035,
  "fan": 10036,
  "▁DC": 10037,
  "iko": 10038,
  "单一": 10039,
  "我是": 10040,
  "群岛": 10041,
  "▁environments": 10042,
  "事故": 10043,
  "▁employ": 10044,
  "所作的": 10045,
  "的关系": 10046,
  "▁Kenya": 10047,
  "ddle": 10048,
  "▁script": 10049,
  "ICA": 10050,
  "▁Initiative": 10051,
  "▁Inn": 10052,
  "▁exceed": 10053,
  "ANT": 10054,
  "national": 10055,
  "▁journalists": 10056,
  "联合王国": 10057,
  "▁continent": 10058,
  "▁Point": 10059,
  "▁Nur": 10060,
  "键": 10061,
  "DN": 10062,
  "舞": 10063,
  "▁Lebanon": 10064,
  "证实": 10065,
  "目的是": 10066,
  "▁Currently": 10067,
  "▁Say": 10068,
  "学者": 10069,
  "chenko": 10070,
  "▁quantum": 10071,
  "格鲁吉亚": 10072,
  "sec": 10073,
  "amine": 10074,
  "base": 10075,
  "为期": 10076,
  "区块链": 10077,
  "▁Movement": 10078,
  "指控": 10079,
  "bio": 10080,
  "不久": 10081,
  "▁priest": 10082,
  "alt": 10083,
  "arrow": 10084,
  "▁departments": 10085,
  "合成": 10086,
  "生存": 10087,
  "留下": 10088,
  "fil": 10089,
  "的政策": 10090,
  "▁Country": 10091,
  "▁depression": 10092,
  "丰": 10093,
  "国际社会": 10094,
  "isi": 10095,
  "英寸": 10096,
  "Sp": 10097,
  "PG": 10098,
  "bis": 10099,
  "▁Tower": 10100,
  "UT": 10101,
  "▁destination": 10102,
  "▁districts": 10103,
  "tec": 10104,
  "成功的": 10105,
  "▁Sto": 10106,
  "lem": 10107,
  "相机": 10108,
  "mond": 10109,
  "许可证": 10110,
  "▁restrictions": 10111,
  "命名": 10112,
  "空调": 10113,
  "分离": 10114,
  "的风险": 10115,
  "creat": 10116,
  "研": 10117,
  "▁implications": 10118,
  "依然": 10119,
  "统治": 10120,
  "▁wheel": 10121,
  "修复": 10122,
  "zin": 10123,
  "ners": 10124,
  "▁legend": 10125,
  "布拉": 10126,
  "▁reportedly": 10127,
  "FF": 10128,
  "▁Regulation": 10129,
  "灾": 10130,
  "mun": 10131,
  "NG": 10132,
  "的非": 10133,
  "▁apart": 10134,
  "流量": 10135,
  "▁Later": 10136,
  "coming": 10137,
  "斗": 10138,
  "hap": 10139,
  "▁carrier": 10140,
  "kid": 10141,
  "▁hi": 10142,
  "uel": 10143,
  "分布": 10144,
  "▁alleged": 10145,
  "账": 10146,
  "proof": 10147,
  "▁Jack": 10148,
  "▁dinner": 10149,
  "▁characterized": 10150,
  "▁Muhammad": 10151,
  "▁arrive": 10152,
  "Ni": 10153,
  "dian": 10154,
  "标准的": 10155,
  "▁Bab": 10156,
  "原因是": 10157,
  "采取行动": 10158,
  "这家": 10159,
  "rip": 10160,
  "yst": 10161,
  "氧": 10162,
  "▁mail": 10163,
  "prom": 10164,
  "▁buying": 10165,
  "柯": 10166,
  "▁swimming": 10167,
  "屏幕": 10168,
  "▁absolutely": 10169,
  "突尼斯": 10170,
  "患": 10171,
  "▁Express": 10172,
  "▁duties": 10173,
  "▁inspired": 10174,
  "ONE": 10175,
  "磨": 10176,
  "杆": 10177,
  "▁Guinea": 10178,
  "▁crystal": 10179,
  "Invest": 10180,
  "rep": 10181,
  "▁participating": 10182,
  "▁reliability": 10183,
  "编号": 10184,
  "▁handling": 10185,
  "count": 10186,
  "▁Muslims": 10187,
  "▁concert": 10188,
  "▁Nan": 10189,
  "▁properly": 10190,
  "▁workshops": 10191,
  "海地": 10192,
  "残": 10193,
  "算法": 10194,
  "的努力": 10195,
  "▁Mod": 10196,
  "▁Nik": 10197,
  "仅仅": 10198,
  "quest": 10199,
  "病人": 10200,
  "DER": 10201,
  "仁": 10202,
  "▁Mars": 10203,
  "十七": 10204,
  "我们可以": 10205,
  "今后": 10206,
  "▁hate": 10207,
  "▁brief": 10208,
  "▁ticket": 10209,
  "▁Serbia": 10210,
  "▁NA": 10211,
  "流动": 10212,
  "失去": 10213,
  "附加": 10214,
  "BE": 10215,
  "▁vol": 10216,
  "▁surrounded": 10217,
  "ante": 10218,
  "▁Hen": 10219,
  "家具": 10220,
  "rine": 10221,
  "rou": 10222,
  "男女": 10223,
  "盐": 10224,
  "rang": 10225,
  "定位": 10226,
  "▁Internal": 10227,
  "▁teeth": 10228,
  "▁observation": 10229,
  "weight": 10230,
  "charge": 10231,
  "这样做": 10232,
  "lle": 10233,
  "kol": 10234,
  "▁Texas": 10235,
  "叫做": 10236,
  "▁Assistant": 10237,
  "和管理": 10238,
  "密切": 10239,
  "专注于": 10240,
  "湿": 10241,
  "薪": 10242,
  "ito": 10243,
  "mart": 10244,
  "▁quantity": 10245,
  "▁champion": 10246,
  "uke": 10247,
  "▁Arabic": 10248,
  "gil": 10249,
  "▁relax": 10250,
  "▁bilateral": 10251,
  "▁Bla": 10252,
  "dev": 10253,
  "▁sphere": 10254,
  "引擎": 10255,
  "数学": 10256,
  "▁injection": 10257,
  "lik": 10258,
  "▁container": 10259,
  "▁publications": 10260,
  "▁Game": 10261,
  "取得了": 10262,
  "辐射": 10263,
  "▁ear": 10264,
  "▁invite": 10265,
  "瓦尔": 10266,
  "▁protest": 10267,
  "▁Access": 10268,
  "洲": 10269,
  "erge": 10270,
  "order": 10271,
  "▁Twitter": 10272,
  "斯基": 10273,
  "shot": 10274,
  "people": 10275,
  "建立一个": 10276,
  "tour": 10277,
  "事业": 10278,
  "马克": 10279,
  "rik": 10280,
  "SY": 10281,
  "nish": 10282,
  "▁considerable": 10283,
  "aid": 10284,
  "▁Kir": 10285,
  "干预": 10286,
  "Hi": 10287,
  "夫人": 10288,
  "imi": 10289,
  "social": 10290,
  "来的": 10291,
  "推出了": 10292,
  "孟加拉国": 10293,
  "意识到": 10294,
  "▁Chicago": 10295,
  "aged": 10296,
  "▁dr": 10297,
  "▁waves": 10298,
  "文字": 10299,
  "▁HS": 10300,
  "▁drivers": 10301,
  "▁Nuclear": 10302,
  "NU": 10303,
  "▁printed": 10304,
  "高的": 10305,
  "Star": 10306,
  "的相关": 10307,
  "▁presidential": 10308,
  "股份": 10309,
  "就在": 10310,
  "律": 10311,
  "少数": 10312,
  "both": 10313,
  "rupt": 10314,
  "▁Gulf": 10315,
  "▁raising": 10316,
  "ground": 10317,
  "窗": 10318,
  "斗争": 10319,
  "▁anywhere": 10320,
  "migrant": 10321,
  "罗斯": 10322,
  "纹": 10323,
  "Dis": 10324,
  "▁shooting": 10325,
  "堆": 10326,
  "▁rely": 10327,
  "▁chart": 10328,
  "▁Senior": 10329,
  "▁duration": 10330,
  "独立的": 10331,
  "▁disabilities": 10332,
  "▁Bad": 10333,
  "制品": 10334,
  "▁producers": 10335,
  "▁Annex": 10336,
  "▁WHO": 10337,
  "▁worst": 10338,
  "▁holy": 10339,
  "的儿童": 10340,
  "乙": 10341,
  "▁demonstration": 10342,
  "取决于": 10343,
  "▁Atlantic": 10344,
  "▁AN": 10345,
  "▁row": 10346,
  "唱": 10347,
  "▁disorders": 10348,
  "RG": 10349,
  "经典": 10350,
  "频率": 10351,
  "Hu": 10352,
  "▁Hal": 10353,
  "thi": 10354,
  "西部": 10355,
  "▁opposed": 10356,
  "▁Bon": 10357,
  "acle": 10358,
  "WFP": 10359,
  "try": 10360,
  "uda": 10361,
  "透明": 10362,
  "OV": 10363,
  "日益": 10364,
  "席": 10365,
  "先前": 10366,
  "lus": 10367,
  "采": 10368,
  "庆祝": 10369,
  "▁trials": 10370,
  "名字": 10371,
  "▁topics": 10372,
  "jar": 10373,
  "设计师": 10374,
  "▁retain": 10375,
  "▁emphasis": 10376,
  "nce": 10377,
  "evo": 10378,
  "phy": 10379,
  "aught": 10380,
  "▁Alliance": 10381,
  "我国": 10382,
  "潜力": 10383,
  "▁gathered": 10384,
  "▁managing": 10385,
  "是因为": 10386,
  "▁alive": 10387,
  "▁plain": 10388,
  "psych": 10389,
  "▁hybrid": 10390,
  "生态系统": 10391,
  "design": 10392,
  "atur": 10393,
  "随时": 10394,
  "▁Pet": 10395,
  "▁Class": 10396,
  "乎": 10397,
  "卢旺达": 10398,
  "▁Med": 10399,
  "▁Cher": 10400,
  "▁Seven": 10401,
  "▁Republican": 10402,
  "▁manufactured": 10403,
  "fusion": 10404,
  "ories": 10405,
  "环境中": 10406,
  "氟": 10407,
  "sho": 10408,
  "TL": 10409,
  "▁buried": 10410,
  "▁characteristic": 10411,
  "hid": 10412,
  "辩论": 10413,
  "omi": 10414,
  "sai": 10415,
  "▁copies": 10416,
  "ann": 10417,
  "正确的": 10418,
  "zan": 10419,
  "polis": 10420,
  "▁Tajikistan": 10421,
  "▁Zone": 10422,
  "doc": 10423,
  "▁password": 10424,
  "▁Look": 10425,
  "▁Indeed": 10426,
  "演讲": 10427,
  "很快": 10428,
  "振": 10429,
  "▁Francisco": 10430,
  "▁Vin": 10431,
  "很好": 10432,
  "▁behaviour": 10433,
  "生活在": 10434,
  "ivo": 10435,
  "型号": 10436,
  "▁allocated": 10437,
  "INC": 10438,
  "▁examine": 10439,
  "▁intervention": 10440,
  "贫穷": 10441,
  "从未": 10442,
  "睡": 10443,
  "▁urgent": 10444,
  "slav": 10445,
  "fax": 10446,
  "▁rehabilitation": 10447,
  "▁Sel": 10448,
  "fici": 10449,
  "频": 10450,
  "地下": 10451,
  "anna": 10452,
  "▁sal": 10453,
  "途": 10454,
  "▁rational": 10455,
  "它们的": 10456,
  "cost": 10457,
  "SAT": 10458,
  "未来的": 10459,
  "阵": 10460,
  "▁Gab": 10461,
  "▁copper": 10462,
  "▁simultaneously": 10463,
  "柜": 10464,
  "▁truck": 10465,
  "ias": 10466,
  "nin": 10467,
  "还可以": 10468,
  "海上": 10469,
  "还在": 10470,
  "INE": 10471,
  "公报": 10472,
  "扫描": 10473,
  "十三": 10474,
  "▁coastal": 10475,
  "▁classification": 10476,
  "▁Mountain": 10477,
  "完成了": 10478,
  "周围": 10479,
  "▁invasion": 10480,
  "eer": 10481,
  "▁governance": 10482,
  "忙": 10483,
  "▁Sky": 10484,
  "▁Did": 10485,
  "▁事实上": 10486,
  "yang": 10487,
  "iling": 10488,
  "▁polymer": 10489,
  "严格": 10490,
  "▁diversity": 10491,
  "加上": 10492,
  "▁seal": 10493,
  "这就是": 10494,
  "gress": 10495,
  "ital": 10496,
  "▁reflecting": 10497,
  "▁airline": 10498,
  "的基础上": 10499,
  "沃尔": 10500,
  "▁Brand": 10501,
  "乌干达": 10502,
  "引用": 10503,
  "也在": 10504,
  "lated": 10505,
  "mber": 10506,
  "多数": 10507,
  "▁teach": 10508,
  "▁conclusions": 10509,
  "▁forests": 10510,
  "协调员": 10511,
  "▁shell": 10512,
  "核武器": 10513,
  "▁earthquake": 10514,
  "突然": 10515,
  "垃圾": 10516,
  "上午": 10517,
  "AND": 10518,
  "有了": 10519,
  "栏": 10520,
  "▁tension": 10521,
  "▁allegedly": 10522,
  "发起": 10523,
  "引入": 10524,
  "来看": 10525,
  "▁episode": 10526,
  "▁Stock": 10527,
  "坚": 10528,
  "因为他们": 10529,
  "轻松": 10530,
  "hou": 10531,
  "▁mirror": 10532,
  "▁construct": 10533,
  "融合": 10534,
  "公正": 10535,
  "延": 10536,
  "涅": 10537,
  "Ca": 10538,
  "hara": 10539,
  "▁drew": 10540,
  "▁paint": 10541,
  "▁Arctic": 10542,
  "tergovernmental": 10543,
  "ender": 10544,
  "▁hole": 10545,
  "批评": 10546,
  "▁apartments": 10547,
  "lav": 10548,
  "刺": 10549,
  "oxid": 10550,
  "时尚": 10551,
  "▁reputation": 10552,
  "worthy": 10553,
  "▁singer": 10554,
  "▁transit": 10555,
  "痛": 10556,
  "▁Communications": 10557,
  "▁Strategy": 10558,
  "▁flash": 10559,
  "▁architectural": 10560,
  "FAO": 10561,
  "▁Case": 10562,
  "May": 10563,
  "▁myth": 10564,
  "争议": 10565,
  "DH": 10566,
  "制裁": 10567,
  "pole": 10568,
  "许": 10569,
  "五个": 10570,
  "▁WE": 10571,
  "▁Kas": 10572,
  "osh": 10573,
  "▁borders": 10574,
  "electric": 10575,
  "rab": 10576,
  "WC": 10577,
  "视觉": 10578,
  "▁controller": 10579,
  "一台": 10580,
  "▁Arch": 10581,
  "▁Albert": 10582,
  "ander": 10583,
  "安全的": 10584,
  "chev": 10585,
  "▁settlements": 10586,
  "uli": 10587,
  "uba": 10588,
  "hk": 10589,
  "谋": 10590,
  "市中心": 10591,
  "醒": 10592,
  "▁routes": 10593,
  "pound": 10594,
  "的网站": 10595,
  "这位": 10596,
  "▁repeat": 10597,
  "▁substantial": 10598,
  "▁artistic": 10599,
  "▁windows": 10600,
  "▁physics": 10601,
  "gre": 10602,
  "Tech": 10603,
  "Am": 10604,
  "装饰": 10605,
  "刑": 10606,
  "塞尔维亚": 10607,
  "▁Yi": 10608,
  "UA": 10609,
  "▁sciences": 10610,
  "wen": 10611,
  "粘": 10612,
  "▁begun": 10613,
  "large": 10614,
  "▁actors": 10615,
  "▁Kaz": 10616,
  "▁usage": 10617,
  "▁theater": 10618,
  "埃尔": 10619,
  "cit": 10620,
  "▁republic": 10621,
  "▁flows": 10622,
  "urs": 10623,
  "▁crucial": 10624,
  "十四": 10625,
  "▁camps": 10626,
  "使用了": 10627,
  "MON": 10628,
  "mmer": 10629,
  "atic": 10630,
  "oro": 10631,
  "消耗": 10632,
  "简单的": 10633,
  "商定": 10634,
  "的主": 10635,
  "▁Linux": 10636,
  "定制": 10637,
  "▁couldn": 10638,
  "hra": 10639,
  "▁Ministers": 10640,
  "▁heading": 10641,
  "tw": 10642,
  "潮": 10643,
  "无需": 10644,
  "▁actor": 10645,
  "▁organisation": 10646,
  "并为": 10647,
  "严重的": 10648,
  "▁consultation": 10649,
  "World": 10650,
  "▁pregnant": 10651,
  "政府的": 10652,
  "rist": 10653,
  "▁diagnosis": 10654,
  "▁hectares": 10655,
  "期待": 10656,
  "mash": 10657,
  "enne": 10658,
  "世界银行": 10659,
  "UI": 10660,
  "中所": 10661,
  "▁associations": 10662,
  "▁whi": 10663,
  "认识到": 10664,
  "sey": 10665,
  "部件": 10666,
  "▁perfectly": 10667,
  "触": 10668,
  "犹太人": 10669,
  "可行": 10670,
  "▁flower": 10671,
  "▁pseudo": 10672,
  "▁performing": 10673,
  "▁rivers": 10674,
  "▁functioning": 10675,
  "化合物": 10676,
  "▁churches": 10677,
  "▁witness": 10678,
  "▁involvement": 10679,
  "▁normally": 10680,
  "的基础": 10681,
  "刺激": 10682,
  "集体": 10683,
  "▁Palestine": 10684,
  "▁discount": 10685,
  "gua": 10686,
  "所需": 10687,
  "XI": 10688,
  "场所": 10689,
  "也没有": 10690,
  "冠军": 10691,
  "▁pin": 10692,
  "▁Costa": 10693,
  "▁reverse": 10694,
  "▁zones": 10695,
  "财富": 10696,
  "solving": 10697,
  "会议的": 10698,
  "▁Ven": 10699,
  "▁processor": 10700,
  "▁entering": 10701,
  "lb": 10702,
  "▁Five": 10703,
  "▁funded": 10704,
  "唐": 10705,
  "generation": 10706,
  "shop": 10707,
  "▁shipping": 10708,
  "▁Material": 10709,
  "教育和": 10710,
  "▁explosive": 10711,
  "organ": 10712,
  "岸": 10713,
  "▁roll": 10714,
  "辅助": 10715,
  "毒品": 10716,
  "ously": 10717,
  "CAN": 10718,
  "▁surprise": 10719,
  "边境": 10720,
  "▁winning": 10721,
  "译": 10722,
  "▁sole": 10723,
  "▁Alex": 10724,
  "以及其他": 10725,
  "物体": 10726,
  "witch": 10727,
  "ids": 10728,
  "▁info": 10729,
  "dimensional": 10730,
  "▁Anton": 10731,
  "工会": 10732,
  "▁lie": 10733,
  "长度": 10734,
  "gers": 10735,
  "让你": 10736,
  "领先": 10737,
  "▁ends": 10738,
  "Bi": 10739,
  "▁span": 10740,
  "▁judicial": 10741,
  "EI": 10742,
  "▁reign": 10743,
  "vat": 10744,
  "▁initiated": 10745,
  "和技术": 10746,
  "hung": 10747,
  "▁breakfast": 10748,
  "dle": 10749,
  "▁explosion": 10750,
  "▁neck": 10751,
  "▁Lanka": 10752,
  "流行": 10753,
  "▁feelings": 10754,
  "提名": 10755,
  "距": 10756,
  "惩罚": 10757,
  "▁promise": 10758,
  "claim": 10759,
  "很难": 10760,
  "▁Zu": 10761,
  "eks": 10762,
  "▁seeks": 10763,
  "▁Bai": 10764,
  "发生在": 10765,
  "政策和": 10766,
  "▁pet": 10767,
  "伏": 10768,
  "肿瘤": 10769,
  "▁市": 10770,
  "iki": 10771,
  "零售": 10772,
  "▁possession": 10773,
  "▁survival": 10774,
  "一张": 10775,
  "我认为": 10776,
  "▁difficulties": 10777,
  "主要的": 10778,
  "遇": 10779,
  "fore": 10780,
  "思考": 10781,
  "▁Exp": 10782,
  "是个": 10783,
  "▁sad": 10784,
  "▁households": 10785,
  "▁civilians": 10786,
  "▁branches": 10787,
  "▁seriously": 10788,
  "Tool": 10789,
  "▁enhanced": 10790,
  "成分": 10791,
  "▁enormous": 10792,
  "混": 10793,
  "发生了": 10794,
  "▁submarine": 10795,
  "续": 10796,
  "▁三": 10797,
  "WI": 10798,
  "cock": 10799,
  "台湾": 10800,
  "子女": 10801,
  "aq": 10802,
  "典": 10803,
  "培养": 10804,
  "是指": 10805,
  "▁automation": 10806,
  "▁seed": 10807,
  "Ku": 10808,
  "DU": 10809,
  "▁Image": 10810,
  "mph": 10811,
  "纳米": 10812,
  "eighth": 10813,
  "▁proven": 10814,
  "▁crossing": 10815,
  "▁guns": 10816,
  "途径": 10817,
  "▁Hai": 10818,
  "的概念": 10819,
  "▁inflation": 10820,
  "▁renewable": 10821,
  "皮肤": 10822,
  "其实": 10823,
  "帮": 10824,
  "▁enabling": 10825,
  "稿": 10826,
  "▁survive": 10827,
  "岩": 10828,
  "▁Front": 10829,
  "▁capability": 10830,
  "lee": 10831,
  "得以": 10832,
  "▁precision": 10833,
  "透": 10834,
  "没有任何": 10835,
  "▁scheduled": 10836,
  "的那样": 10837,
  "▁damaged": 10838,
  "币": 10839,
  "▁Check": 10840,
  "也会": 10841,
  "▁occasion": 10842,
  "alo": 10843,
  "duct": 10844,
  "▁Kazakh": 10845,
  "▁suspect": 10846,
  "▁signature": 10847,
  "用作": 10848,
  "发布了": 10849,
  "完美": 10850,
  "的个人": 10851,
  "▁violent": 10852,
  "▁generations": 10853,
  "zza": 10854,
  "▁Henry": 10855,
  "▁Besides": 10856,
  "第八": 10857,
  "▁steam": 10858,
  "▁Large": 10859,
  "▁organize": 10860,
  "qi": 10861,
  "都可以": 10862,
  "▁Tech": 10863,
  "VII": 10864,
  "▁contrary": 10865,
  "仪器": 10866,
  "atom": 10867,
  "▁Player": 10868,
  "成立于": 10869,
  "▁paintings": 10870,
  "rod": 10871,
  "参": 10872,
  "第二个": 10873,
  "照明": 10874,
  "另": 10875,
  "▁researcher": 10876,
  "OW": 10877,
  "▁sentenced": 10878,
  "▁syn": 10879,
  "蛋白质": 10880,
  "边缘": 10881,
  "square": 10882,
  "是不": 10883,
  "▁analyze": 10884,
  "▁excess": 10885,
  "Ki": 10886,
  "▁returns": 10887,
  "隐私": 10888,
  "烈": 10889,
  "退休": 10890,
  "说道": 10891,
  "文学": 10892,
  "▁faced": 10893,
  "▁alliance": 10894,
  "▁dimensions": 10895,
  "▁mill": 10896,
  "▁Night": 10897,
  "▁blockchain": 10898,
  "高级别": 10899,
  "▁populations": 10900,
  "ament": 10901,
  "lau": 10902,
  "urg": 10903,
  "▁shore": 10904,
  "安全性": 10905,
  "▁pray": 10906,
  "微软": 10907,
  "▁Cra": 10908,
  "但它": 10909,
  "sex": 10910,
  "▁Rules": 10911,
  "atter": 10912,
  "▁Electronic": 10913,
  "▁roles": 10914,
  "RB": 10915,
  "皇": 10916,
  "Inter": 10917,
  "▁luxury": 10918,
  "▁Technologies": 10919,
  "▁detained": 10920,
  "了一些": 10921,
  "▁Analysis": 10922,
  "▁restore": 10923,
  "Cor": 10924,
  "sam": 10925,
  "部门的": 10926,
  "领先的": 10927,
  "XX": 10928,
  "▁reconstruction": 10929,
  "iding": 10930,
  "同样的": 10931,
  "▁sick": 10932,
  "ANG": 10933,
  "logist": 10934,
  "上诉": 10935,
  "两名": 10936,
  "的核心": 10937,
  "奉": 10938,
  "ark": 10939,
  "手术": 10940,
  "哈萨克斯坦": 10941,
  "cient": 10942,
  "UE": 10943,
  "一个新的": 10944,
  "fine": 10945,
  "▁Search": 10946,
  "wear": 10947,
  "级别": 10948,
  "期限": 10949,
  "▁divine": 10950,
  "招": 10951,
  "tm": 10952,
  "朝鲜": 10953,
  "更大的": 10954,
  "rite": 10955,
  "▁Intel": 10956,
  "▁judges": 10957,
  "嘉": 10958,
  "▁Hot": 10959,
  "▁votes": 10960,
  "彻底": 10961,
  "horn": 10962,
  "▁putting": 10963,
  "▁theatre": 10964,
  "▁premises": 10965,
  "axis": 10966,
  "cau": 10967,
  "记忆": 10968,
  "▁ranging": 10969,
  "wed": 10970,
  "wise": 10971,
  "▁smartphone": 10972,
  "▁settled": 10973,
  "▁welcomed": 10974,
  "国会": 10975,
  "追求": 10976,
  "looking": 10977,
  "strat": 10978,
  "并以此为": 10979,
  "▁harvest": 10980,
  "OUR": 10981,
  "牙": 10982,
  "▁qualified": 10983,
  "存在的": 10984,
  "▁weekend": 10985,
  "▁applies": 10986,
  "遗传": 10987,
  "circ": 10988,
  "书面": 10989,
  "▁今天": 10990,
  "打造": 10991,
  "▁circle": 10992,
  "uro": 10993,
  "With": 10994,
  "▁spaces": 10995,
  "大韩民国": 10996,
  "候": 10997,
  "gle": 10998,
  "▁Rwanda": 10999,
  "They": 11000,
  "日起": 11001,
  "iel": 11002,
  "▁BO": 11003,
  "iza": 11004,
  "规格": 11005,
  "▁Future": 11006,
  "▁Place": 11007,
  "▁Guide": 11008,
  "▁displaced": 11009,
  "▁sixth": 11010,
  "TED": 11011,
  "▁sponsored": 11012,
  "▁mines": 11013,
  "sus": 11014,
  "UK": 11015,
  "粗": 11016,
  "▁Find": 11017,
  "在我": 11018,
  "行星": 11019,
  "缅甸": 11020,
  "KE": 11021,
  "▁mega": 11022,
  "他人": 11023,
  "消失": 11024,
  "▁equally": 11025,
  "认": 11026,
  "erry": 11027,
  "▁科技": 11028,
  "ugh": 11029,
  "坐在": 11030,
  "▁impressive": 11031,
  "把它": 11032,
  "▁forming": 11033,
  "VER": 11034,
  "▁conflicts": 11035,
  "▁achieving": 11036,
  "怕": 11037,
  "声音": 11038,
  "Ke": 11039,
  "▁presents": 11040,
  "European": 11041,
  "▁twin": 11042,
  "ack": 11043,
  "治理": 11044,
  "暗": 11045,
  "▁BA": 11046,
  "▁phenomena": 11047,
  "▁worker": 11048,
  "▁upgrade": 11049,
  "维修": 11050,
  "piece": 11051,
  "总干事": 11052,
  "▁grid": 11053,
  "ulator": 11054,
  "case": 11055,
  "▁angle": 11056,
  "▁operates": 11057,
  "five": 11058,
  "▁tournament": 11059,
  "东部": 11060,
  "▁interactive": 11061,
  "▁empty": 11062,
  "某个": 11063,
  "有限": 11064,
  "▁earned": 11065,
  "伊朗伊斯兰共和国": 11066,
  "▁der": 11067,
  "▁thermo": 11068,
  "参与者": 11069,
  "▁expenditures": 11070,
  "遵循": 11071,
  "国防": 11072,
  "▁Village": 11073,
  "现代化": 11074,
  "▁suicide": 11075,
  "引起的": 11076,
  "▁Operations": 11077,
  "dri": 11078,
  "fre": 11079,
  "磋商": 11080,
  "领袖": 11081,
  "▁Tam": 11082,
  "▁Estonia": 11083,
  "▁Gua": 11084,
  "脸": 11085,
  "▁calendar": 11086,
  "AGE": 11087,
  "▁Partnership": 11088,
  "驾驶": 11089,
  "▁allowance": 11090,
  "在本": 11091,
  "▁ruling": 11092,
  "▁tickets": 11093,
  "▁generator": 11094,
  "▁projected": 11095,
  "eat": 11096,
  "Pi": 11097,
  "▁grass": 11098,
  "glyc": 11099,
  "EO": 11100,
  "home": 11101,
  "sea": 11102,
  "拖": 11103,
  "在这": 11104,
  "▁Reg": 11105,
  "蓝色": 11106,
  "▁trademark": 11107,
  "▁aren": 11108,
  "▁fewer": 11109,
  "勃": 11110,
  "rai": 11111,
  "冠": 11112,
  "▁Golden": 11113,
  "dol": 11114,
  "单独": 11115,
  "hun": 11116,
  "▁jointly": 11117,
  "版权": 11118,
  "ude": 11119,
  "▁Buddhist": 11120,
  "斯克": 11121,
  "斯里兰卡": 11122,
  "▁Bah": 11123,
  "held": 11124,
  "里面": 11125,
  "How": 11126,
  "ume": 11127,
  "iga": 11128,
  "所列": 11129,
  "▁parliament": 11130,
  "hip": 11131,
  "though": 11132,
  "LAN": 11133,
  "▁Persons": 11134,
  "广州": 11135,
  "vest": 11136,
  "▁overcome": 11137,
  "▁Moses": 11138,
  "▁SC": 11139,
  "足够": 11140,
  "operation": 11141,
  "flu": 11142,
  "agan": 11143,
  "▁examined": 11144,
  "十一": 11145,
  "through": 11146,
  "成长": 11147,
  "废": 11148,
  "standing": 11149,
  "tial": 11150,
  "▁sacred": 11151,
  "▁Siberia": 11152,
  "▁Week": 11153,
  "▁interact": 11154,
  "▁beat": 11155,
  "khan": 11156,
  "liber": 11157,
  "aku": 11158,
  "▁preliminary": 11159,
  "blast": 11160,
  "部落": 11161,
  "▁statue": 11162,
  "产量": 11163,
  "发布的": 11164,
  "甜": 11165,
  "▁Ran": 11166,
  "的做法": 11167,
  "火箭": 11168,
  "▁stronger": 11169,
  "非正式": 11170,
  "stock": 11171,
  "已在": 11172,
  "▁deals": 11173,
  "和建议": 11174,
  "▁Metal": 11175,
  "所在": 11176,
  "结婚": 11177,
  "Res": 11178,
  "尽可能": 11179,
  "▁intra": 11180,
  "▁totally": 11181,
  "stin": 11182,
  "空军": 11183,
  "▁breach": 11184,
  "TOR": 11185,
  "多少": 11186,
  "cept": 11187,
  "▁bird": 11188,
  "有很多": 11189,
  "▁logo": 11190,
  "pond": 11191,
  "▁Climate": 11192,
  "慢": 11193,
  "hem": 11194,
  "▁Process": 11195,
  "的最佳": 11196,
  "sembl": 11197,
  "▁belt": 11198,
  "▁Annual": 11199,
  "▁landing": 11200,
  "cop": 11201,
  "▁toxic": 11202,
  "▁borrow": 11203,
  "vig": 11204,
  "行使": 11205,
  "▁spa": 11206,
  "可以使用": 11207,
  "最小": 11208,
  "▁conferences": 11209,
  "航班": 11210,
  "lion": 11211,
  "苯": 11212,
  "比特币": 11213,
  "▁Macedonia": 11214,
  "志": 11215,
  "▁disc": 11216,
  "effective": 11217,
  "▁slowly": 11218,
  "墨": 11219,
  "▁necessarily": 11220,
  "vil": 11221,
  "iest": 11222,
  "暖": 11223,
  "▁belongs": 11224,
  "突": 11225,
  "SAR": 11226,
  "峰": 11227,
  "nya": 11228,
  "各方": 11229,
  "无线电": 11230,
  "郎": 11231,
  "很大": 11232,
  "▁naturally": 11233,
  "北美": 11234,
  "▁wearing": 11235,
  "▁Harry": 11236,
  "▁elite": 11237,
  "asse": 11238,
  "glu": 11239,
  "靠近": 11240,
  "▁converted": 11241,
  "▁cruise": 11242,
  "▁regardless": 11243,
  "▁assault": 11244,
  "ESS": 11245,
  "的行动": 11246,
  "\"?": 11247,
  "▁Sy": 11248,
  "round": 11249,
  "泡": 11250,
  "▁diagnostic": 11251,
  "国籍": 11252,
  "▁expedition": 11253,
  "wo": 11254,
  "▁assessed": 11255,
  "▁classified": 11256,
  "loc": 11257,
  "清楚": 11258,
  "RAM": 11259,
  "ener": 11260,
  "▁tunnel": 11261,
  "▁precisely": 11262,
  "idi": 11263,
  "lah": 11264,
  "美丽的": 11265,
  "的名义": 11266,
  "明白": 11267,
  "▁Direct": 11268,
  "because": 11269,
  "▁sending": 11270,
  "cking": 11271,
  "极端": 11272,
  "asi": 11273,
  "▁Innovation": 11274,
  "tier": 11275,
  "写道": 11276,
  "▁belong": 11277,
  "▁separated": 11278,
  "寄": 11279,
  "的一切": 11280,
  "ELL": 11281,
  "▁Bell": 11282,
  "提案": 11283,
  "重视": 11284,
  "种族主义": 11285,
  "乌拉圭": 11286,
  "assi": 11287,
  "phil": 11288,
  "▁Novo": 11289,
  "kra": 11290,
  "两次": 11291,
  "▁imagine": 11292,
  "▁molecules": 11293,
  "▁bull": 11294,
  "旁": 11295,
  "▁Word": 11296,
  "▁villa": 11297,
  "▁hum": 11298,
  "▁Was": 11299,
  "▁Sil": 11300,
  "▁reforms": 11301,
  "房地产": 11302,
  "▁healthcare": 11303,
  "的孩子": 11304,
  "衣服": 11305,
  "AW": 11306,
  "quire": 11307,
  "的想法": 11308,
  "▁protocol": 11309,
  "▁Start": 11310,
  "▁Ant": 11311,
  "craft": 11312,
  "▁reflects": 11313,
  "▁alarm": 11314,
  "loaded": 11315,
  "your": 11316,
  "有一些": 11317,
  "▁Bangladesh": 11318,
  "▁Ry": 11319,
  "燃": 11320,
  "在过去": 11321,
  "▁Dong": 11322,
  "astro": 11323,
  "align": 11324,
  "UND": 11325,
  "人群": 11326,
  "▁grants": 11327,
  "rib": 11328,
  "晶": 11329,
  "cli": 11330,
  "firm": 11331,
  "支援": 11332,
  "umi": 11333,
  "▁Sad": 11334,
  "▁adventure": 11335,
  "▁neutral": 11336,
  "年轻人": 11337,
  "▁breed": 11338,
  "▁alia": 11339,
  "宿": 11340,
  "▁Ev": 11341,
  "加勒比": 11342,
  "operative": 11343,
  "和非": 11344,
  "▁significance": 11345,
  "fur": 11346,
  "▁Nam": 11347,
  "▁profits": 11348,
  "方案的": 11349,
  "▁mysterious": 11350,
  "翼": 11351,
  "tone": 11352,
  "OB": 11353,
  "IES": 11354,
  "omb": 11355,
  "fen": 11356,
  "▁displays": 11357,
  "fle": 11358,
  "hm": 11359,
  "▁widespread": 11360,
  "▁eternal": 11361,
  "而不": 11362,
  "▁Fish": 11363,
  "pill": 11364,
  "腿": 11365,
  "▁von": 11366,
  "给了": 11367,
  "▁logistics": 11368,
  "房子": 11369,
  "▁robot": 11370,
  "修正案": 11371,
  "prop": 11372,
  "▁sheet": 11373,
  "胜利": 11374,
  "▁asking": 11375,
  "▁falling": 11376,
  "▁kit": 11377,
  "lag": 11378,
  "Drive": 11379,
  "▁counsel": 11380,
  "答复": 11381,
  "vant": 11382,
  "odo": 11383,
  "ots": 11384,
  "捐款": 11385,
  "中国的": 11386,
  "▁yuan": 11387,
  "▁paying": 11388,
  "有趣的": 11389,
  "▁autonomous": 11390,
  "▁enemies": 11391,
  "comb": 11392,
  "MAR": 11393,
  "讯": 11394,
  "▁Wind": 11395,
  "▁disorder": 11396,
  "▁achievements": 11397,
  "特别是在": 11398,
  "▁diesel": 11399,
  "turn": 11400,
  "▁prop": 11401,
  "厄": 11402,
  "起草": 11403,
  "duc": 11404,
  "▁amended": 11405,
  "BER": 11406,
  "Facebook": 11407,
  "▁viewed": 11408,
  "例子": 11409,
  "shirt": 11410,
  "国际合作": 11411,
  "▁exhaust": 11412,
  "▁comprising": 11413,
  "▁aviation": 11414,
  "天然": 11415,
  "ington": 11416,
  "encies": 11417,
  "DT": 11418,
  "▁define": 11419,
  "▁thy": 11420,
  "▁legislative": 11421,
  "uan": 11422,
  "▁meter": 11423,
  "ALL": 11424,
  "front": 11425,
  "▁corr": 11426,
  "蒙古": 11427,
  "▁improvements": 11428,
  "筹备": 11429,
  "gur": 11430,
  "▁bases": 11431,
  "OME": 11432,
  "▁hospitals": 11433,
  "fuel": 11434,
  "bag": 11435,
  "▁大会": 11436,
  "▁Castle": 11437,
  "▁Associate": 11438,
  "▁Wu": 11439,
  "▁Solar": 11440,
  "▁Lan": 11441,
  "ures": 11442,
  "检": 11443,
  "▁Rod": 11444,
  "人工智能": 11445,
  "径": 11446,
  "▁permitted": 11447,
  "▁上海": 11448,
  "▁executed": 11449,
  "东帝汶": 11450,
  "▁automated": 11451,
  "强度": 11452,
  "执行主任": 11453,
  "dad": 11454,
  "它在": 11455,
  "等人": 11456,
  "▁Short": 11457,
  "▁McC": 11458,
  "▁transmitted": 11459,
  "▁Planning": 11460,
  "当你": 11461,
  "▁celebrate": 11462,
  "ITY": 11463,
  "▁texts": 11464,
  "▁Rio": 11465,
  "待遇": 11466,
  "▁precise": 11467,
  "▁outcomes": 11468,
  "plication": 11469,
  "▁tight": 11470,
  "▁filed": 11471,
  "硅": 11472,
  "乔治": 11473,
  "▁Met": 11474,
  "▁municipal": 11475,
  "▁lifestyle": 11476,
  "▁deployed": 11477,
  "短期": 11478,
  "察": 11479,
  "▁acquire": 11480,
  "珠": 11481,
  "▁compete": 11482,
  "SON": 11483,
  "的妇女": 11484,
  "omo": 11485,
  "生产的": 11486,
  "EAN": 11487,
  "月在": 11488,
  "格拉": 11489,
  "优质": 11490,
  "别墅": 11491,
  "村庄": 11492,
  "resolution": 11493,
  "▁Af": 11494,
  "▁commitments": 11495,
  "▁merchant": 11496,
  "stop": 11497,
  "成熟": 11498,
  "损": 11499,
  "电缆": 11500,
  "▁shoes": 11501,
  "sten": 11502,
  "至关重要": 11503,
  "▁fossil": 11504,
  "kor": 11505,
  "第九": 11506,
  "borne": 11507,
  "▁sacrifice": 11508,
  "emia": 11509,
  "▁burn": 11510,
  "妻子": 11511,
  "product": 11512,
  "▁Brown": 11513,
  "▁compact": 11514,
  "▁apparently": 11515,
  "mise": 11516,
  "成了": 11517,
  "突出": 11518,
  "贸": 11519,
  "HTML": 11520,
  "stro": 11521,
  "▁Guard": 11522,
  "▁shelter": 11523,
  "▁shoot": 11524,
  "▁Had": 11525,
  "中文": 11526,
  "航天": 11527,
  "▁crypto": 11528,
  "▁IC": 11529,
  "PRO": 11530,
  "hot": 11531,
  "▁electron": 11532,
  "▁Session": 11533,
  "eration": 11534,
  "▁moderate": 11535,
  "▁Dmitry": 11536,
  "丰富": 11537,
  "▁Several": 11538,
  "▁Abdul": 11539,
  "原子": 11540,
  "stitu": 11541,
  "▁Android": 11542,
  "▁repeated": 11543,
  "cation": 11544,
  "的结论": 11545,
  "▁column": 11546,
  "cont": 11547,
  "▁recover": 11548,
  "▁reactions": 11549,
  "▁Directive": 11550,
  "可靠": 11551,
  "century": 11552,
  "▁cooling": 11553,
  "posit": 11554,
  "▁Iceland": 11555,
  "字母": 11556,
  "▁Steel": 11557,
  "enberg": 11558,
  "适": 11559,
  "tub": 11560,
  "▁expanding": 11561,
  "▁wound": 11562,
  "ody": 11563,
  "摘要": 11564,
  "IDE": 11565,
  "的部分": 11566,
  "赖": 11567,
  "锁": 11568,
  "▁exploration": 11569,
  "目前的": 11570,
  "▁saving": 11571,
  "▁worry": 11572,
  "高于": 11573,
  "CAS": 11574,
  "sson": 11575,
  "区别": 11576,
  "▁oral": 11577,
  "观看": 11578,
  "present": 11579,
  "▁Bin": 11580,
  "儿子": 11581,
  "▁wisdom": 11582,
  "一只": 11583,
  "▁Qui": 11584,
  "▁celebration": 11585,
  "▁Ok": 11586,
  "▁GB": 11587,
  "▁Dem": 11588,
  "纽": 11589,
  "让我": 11590,
  "▁observe": 11591,
  "four": 11592,
  "▁eggs": 11593,
  "web": 11594,
  "▁faces": 11595,
  "▁advocate": 11596,
  "和服务": 11597,
  "ease": 11598,
  "▁Andrew": 11599,
  "▁illness": 11600,
  "▁Audit": 11601,
  "gall": 11602,
  "积": 11603,
  "▁ages": 11604,
  "泛": 11605,
  "万人": 11606,
  "塞内加尔": 11607,
  "谱": 11608,
  "kas": 11609,
  "小说": 11610,
  "裂": 11611,
  "▁variable": 11612,
  "逊": 11613,
  "缺陷": 11614,
  "福音": 11615,
  "▁hill": 11616,
  "别人": 11617,
  "还没有": 11618,
  "文明": 11619,
  "▁Index": 11620,
  "中使用": 11621,
  "编写的": 11622,
  "▁Experts": 11623,
  "profit": 11624,
  "州的": 11625,
  "判": 11626,
  "▁exceptional": 11627,
  "▁Map": 11628,
  "各国政府": 11629,
  "▁radar": 11630,
  "度假": 11631,
  "▁preferred": 11632,
  "lift": 11633,
  "引发": 11634,
  "▁spare": 11635,
  "▁lu": 11636,
  "海关": 11637,
  "block": 11638,
  "▁crack": 11639,
  "das": 11640,
  "▁Dam": 11641,
  "中期": 11642,
  "▁imposed": 11643,
  "▁Stru": 11644,
  "bru": 11645,
  "gul": 11646,
  "▁Les": 11647,
  "▁Austrian": 11648,
  "常常": 11649,
  "▁encouraged": 11650,
  "▁RF": 11651,
  "quin": 11652,
  "▁harmful": 11653,
  "▁Expert": 11654,
  "阿尔巴尼亚": 11655,
  "排除": 11656,
  "豆": 11657,
  "▁essentially": 11658,
  "猪": 11659,
  "▁perception": 11660,
  "良好": 11661,
  "▁infections": 11662,
  "档案": 11663,
  "▁sculpture": 11664,
  "▁logic": 11665,
  "ulu": 11666,
  "▁nurse": 11667,
  "足够的": 11668,
  "AX": 11669,
  "安全和": 11670,
  "特色": 11671,
  "雄": 11672,
  "爆": 11673,
  "日期间": 11674,
  "至今": 11675,
  "舒适": 11676,
  "钟": 11677,
  "pes": 11678,
  "丘": 11679,
  "▁distinguish": 11680,
  "▁Six": 11681,
  "术语": 11682,
  "▁minority": 11683,
  "超越": 11684,
  "萨尔瓦多": 11685,
  "坦克": 11686,
  "colon": 11687,
  "逐": 11688,
  "董事会": 11689,
  "视为": 11690,
  "的最后": 11691,
  "▁http": 11692,
  "HE": 11693,
  "CAD": 11694,
  "主义者": 11695,
  "▁gods": 11696,
  "服装": 11697,
  "▁sizes": 11698,
  "▁Coll": 11699,
  "电气": 11700,
  "生长": 11701,
  "步行": 11702,
  "emi": 11703,
  "pie": 11704,
  "▁watching": 11705,
  "的执行情况": 11706,
  "Info": 11707,
  "室内": 11708,
  "每日": 11709,
  "通报": 11710,
  "▁coin": 11711,
  "慈善": 11712,
  "冰岛": 11713,
  "巴尔": 11714,
  "的城市": 11715,
  "Wh": 11716,
  "▁Cy": 11717,
  "PORT": 11718,
  "▁metals": 11719,
  "President": 11720,
  "怎样": 11721,
  "拨": 11722,
  "value": 11723,
  "bia": 11724,
  "▁wouldn": 11725,
  "在全球": 11726,
  "▁startup": 11727,
  "▁Near": 11728,
  "专用": 11729,
  "CHW": 11730,
  "▁rival": 11731,
  "▁injured": 11732,
  "但他": 11733,
  "你会": 11734,
  "uter": 11735,
  "组成部分": 11736,
  "▁Cro": 11737,
  "oa": 11738,
  "▁Bob": 11739,
  "iu": 11740,
  "▁Minsk": 11741,
  "sko": 11742,
  "▁Coast": 11743,
  "还将": 11744,
  "管辖": 11745,
  "▁fate": 11746,
  "或许": 11747,
  "▁vegetables": 11748,
  "elo": 11749,
  "▁Igor": 11750,
  "尘": 11751,
  "效应": 11752,
  "▁fiscal": 11753,
  "犹太": 11754,
  "▁pipe": 11755,
  "ifies": 11756,
  "ider": 11757,
  "track": 11758,
  "▁Fin": 11759,
  "▁Hel": 11760,
  "cular": 11761,
  "▁vacuum": 11762,
  "!”": 11763,
  "▁frequent": 11764,
  "sens": 11765,
  "是我": 11766,
  "眼睛": 11767,
  "▁Edward": 11768,
  "信息技术": 11769,
  "NPT": 11770,
  "▁integrity": 11771,
  "▁default": 11772,
  "▁supplied": 11773,
  "厘米": 11774,
  "ternal": 11775,
  "▁tall": 11776,
  "chas": 11777,
  "的环境": 11778,
  "骑": 11779,
  "▁applying": 11780,
  "▁diplomatic": 11781,
  "eal": 11782,
  "▁Yemen": 11783,
  "mple": 11784,
  "▁sixty": 11785,
  "的儿子": 11786,
  "所做的": 11787,
  "hall": 11788,
  "▁Farm": 11789,
  "▁Championship": 11790,
  "neu": 11791,
  "▁Wang": 11792,
  "▁directions": 11793,
  "幸福": 11794,
  "ometer": 11795,
  "他还": 11796,
  "的平均": 11797,
  "▁desired": 11798,
  "洞": 11799,
  "▁Click": 11800,
  "▁flexibility": 11801,
  "▁somewhat": 11802,
  "▁Dj": 11803,
  "时刻": 11804,
  "▁possess": 11805,
  "称之为": 11806,
  "cake": 11807,
  "▁provinces": 11808,
  "每周": 11809,
  "game": 11810,
  "▁Select": 11811,
  "继承": 11812,
  "App": 11813,
  "▁cameras": 11814,
  "▁sword": 11815,
  "掌": 11816,
  "组织和": 11817,
  "主权": 11818,
  "▁lessons": 11819,
  "民间社会": 11820,
  "cycl": 11821,
  "Cr": 11822,
  "▁preserve": 11823,
  "▁movies": 11824,
  "举办的": 11825,
  "▁Chen": 11826,
  "▁owing": 11827,
  "three": 11828,
  "▁strain": 11829,
  "▁GC": 11830,
  "拯救": 11831,
  "inc": 11832,
  "▁Common": 11833,
  "▁forever": 11834,
  "gia": 11835,
  "▁everywhere": 11836,
  "INT": 11837,
  "理念": 11838,
  "▁jet": 11839,
  "观众": 11840,
  "▁Hon": 11841,
  "PAR": 11842,
  "ctic": 11843,
  "▁Slo": 11844,
  "的企业": 11845,
  "▁nerve": 11846,
  "将是": 11847,
  "期望": 11848,
  "▁focusing": 11849,
  "攻": 11850,
  "戒": 11851,
  "▁rice": 11852,
  "▁macro": 11853,
  "hui": 11854,
  "过的": 11855,
  "伸": 11856,
  "▁nervous": 11857,
  "▁Universal": 11858,
  "额外的": 11859,
  "▁Dal": 11860,
  "gam": 11861,
  "▁plenary": 11862,
  "副主席": 11863,
  "▁argument": 11864,
  "盒": 11865,
  "警方": 11866,
  "嘴": 11867,
  "▁computing": 11868,
  "钻": 11869,
  "igan": 11870,
  "的朋友": 11871,
  "▁Mis": 11872,
  "▁cream": 11873,
  "anga": 11874,
  "著名": 11875,
  "ils": 11876,
  "更高": 11877,
  "▁obligation": 11878,
  "▁menu": 11879,
  "▁twelve": 11880,
  "▁Platform": 11881,
  "的家庭": 11882,
  "color": 11883,
  "此次": 11884,
  "▁Hus": 11885,
  "▁climb": 11886,
  "fix": 11887,
  "Windows": 11888,
  "劳工": 11889,
  "shu": 11890,
  "▁afraid": 11891,
  "都能": 11892,
  "灾害": 11893,
  "▁spectrum": 11894,
  "先进的": 11895,
  "主流": 11896,
  "调节": 11897,
  "▁Simon": 11898,
  "成绩": 11899,
  "chemical": 11900,
  "▁processed": 11901,
  "焦": 11902,
  "guard": 11903,
  "▁summit": 11904,
  "▁Resort": 11905,
  "被视为": 11906,
  "▁decree": 11907,
  "▁intense": 11908,
  "最多": 11909,
  "成人": 11910,
  "摄影": 11911,
  "Safe": 11912,
  "是最": 11913,
  "出的": 11914,
  "激": 11915,
  "▁phrase": 11916,
  "nat": 11917,
  "浓度": 11918,
  "cid": 11919,
  "的声音": 11920,
  "▁favour": 11921,
  "▁impression": 11922,
  "入侵": 11923,
  "▁Mun": 11924,
  "属性": 11925,
  "▁Independent": 11926,
  "▁chip": 11927,
  "▁assumption": 11928,
  "▁preserved": 11929,
  "Chi": 11930,
  "设备的": 11931,
  "漫": 11932,
  "岛屿": 11933,
  "▁Pay": 11934,
  "cle": 11935,
  "来文": 11936,
  "AST": 11937,
  "豪华": 11938,
  "hle": 11939,
  "▁errors": 11940,
  "ninth": 11941,
  "▁imported": 11942,
  "dding": 11943,
  "nail": 11944,
  "abi": 11945,
  "▁Defence": 11946,
  "▁restoration": 11947,
  "隐藏": 11948,
  "▁abstract": 11949,
  "始终": 11950,
  "层面": 11951,
  "▁Commerce": 11952,
  "多次": 11953,
  "所有这些": 11954,
  "大楼": 11955,
  "mble": 11956,
  "▁rid": 11957,
  "情绪": 11958,
  "▁hero": 11959,
  "▁Statement": 11960,
  "rage": 11961,
  "想法": 11962,
  "▁pounds": 11963,
  "International": 11964,
  "▁Boris": 11965,
  "▁discharge": 11966,
  "▁rub": 11967,
  "▁revenues": 11968,
  "形状": 11969,
  "▁batteries": 11970,
  "agon": 11971,
  "花费": 11972,
  "▁settings": 11973,
  "▁shadow": 11974,
  "▁afford": 11975,
  "crypt": 11976,
  "▁everyday": 11977,
  "odor": 11978,
  "plus": 11979,
  "▁separation": 11980,
  "▁Body": 11981,
  "的功能": 11982,
  "▁Dun": 11983,
  "黑暗": 11984,
  "形象": 11985,
  "oko": 11986,
  "lling": 11987,
  "▁Register": 11988,
  "▁Qua": 11989,
  "Mac": 11990,
  "先进": 11991,
  "▁faculty": 11992,
  "▁LA": 11993,
  "▁iPhone": 11994,
  "glo": 11995,
  "▁trap": 11996,
  "▁layers": 11997,
  "乡": 11998,
  "▁Thai": 11999,
  "的速度": 12000,
  "▁Step": 12001,
  "的作品": 12002,
  "bai": 12003,
  "据称": 12004,
  "签证": 12005,
  "开发署": 12006,
  "炉": 12007,
  "script": 12008,
  "▁gonna": 12009,
  "▁translated": 12010,
  "fest": 12011,
  "▁Wo": 12012,
  "kind": 12013,
  "我不": 12014,
  "▁mosque": 12015,
  "与会者": 12016,
  "▁transparent": 12017,
  "▁secretary": 12018,
  "你在": 12019,
  "▁territorial": 12020,
  "庄": 12021,
  "▁competent": 12022,
  "▁width": 12023,
  "国外": 12024,
  "backed": 12025,
  "POL": 12026,
  "▁cultures": 12027,
  "▁median": 12028,
  "▁surveillance": 12029,
  "▁pal": 12030,
  "▁beer": 12031,
  "▁exclusively": 12032,
  "驱逐": 12033,
  "▁spoken": 12034,
  "▁Maha": 12035,
  "可用于": 12036,
  "▁Located": 12037,
  "▁specially": 12038,
  "▁Via": 12039,
  "▁Len": 12040,
  "特拉": 12041,
  "▁Kun": 12042,
  "MIT": 12043,
  "申": 12044,
  "表格": 12045,
  "▁protecting": 12046,
  "争取": 12047,
  "快乐": 12048,
  "船舶": 12049,
  "▁graduate": 12050,
  "▁UNICEF": 12051,
  "▁racial": 12052,
  "dec": 12053,
  "rank": 12054,
  "提醒": 12055,
  "逐渐": 12056,
  "▁extraordinary": 12057,
  "体现": 12058,
  "提交了": 12059,
  "捐助": 12060,
  "▁scan": 12061,
  "ured": 12062,
[...]
